<pad>	0
<unk>	0
<s>	0
</s>	0
▁क	-0
▁t	-1
he	-2
▁a	-3
▁स	-4
▁ह	-5
in	-6
▁the	-7
▁o	-8
▁प	-9
re	-10
▁म	-11
▁s	-12
er	-13
nd	-14
्र	-15
▁w	-16
at	-17
on	-18
ार	-19
is	-20
▁है	-21
ें	-22
▁ज	-23
▁अ	-24
▁के	-25
en	-26
▁व	-27
या	-28
▁of	-29
▁न	-30
it	-31
▁c	-32
or	-33
▁b	-34
es	-35
ed	-36
▁f	-37
▁ब	-38
ou	-39
▁p	-40
▁उ	-41
▁त	-42
ों	-43
an	-44
▁द	-45
al	-46
▁ल	-47
ar	-48
▁in	-49
▁and	-50
▁औ	-51
ने	-52
▁और	-53
ing	-54
▁में	-55
र्	-56
▁र	-57
▁to	-58
▁m	-59
▁d	-60
ion	-61
ता	-62
▁h	-63
्य	-64
▁की	-65
▁कर	-66
ान	-67
▁(	-68
▁कि	-69
ic	-70
as	-71
▁प्र	-72
▁आ	-73
▁को	-74
le	-75
िक	-76
om	-77
▁से	-78
▁th	-79
ent	-80
ll	-81
्त	-82
▁भ	-83
▁n	-84
▁का	-85
▁A	-86
ना	-87
▁T	-88
▁इ	-89
▁be	-90
▁ग	-91
ve	-92
ित	-93
▁e	-94
▁I	-95
ct	-96
▁re	-97
▁is	-98
▁पर	-99
▁S	-100
▁य	-101
ाल	-102
▁हो	-103
ro	-104
▁l	-105
▁ए	-106
st	-107
▁y	-108
ot	-109
▁g	-110
ut	-111
्व	-112
id	-113
▁च	-114
ही	-115
se	-116
न्	-117
▁for	-118
ation	-119
▁लि	-120
▁श	-121
ur	-122
ते	-123
▁वि	-124
im	-125
ce	-126
▁wh	-127
ly	-128
▁सं	-129
ay	-130
ad	-131
▁जा	-132
▁हैं	-133
▁इस	-134
ver	-135
▁you	-136
▁उस	-137
am	-138
▁u	-139
के	-140
ला	-141
▁ख	-142
▁C	-143
ोग	-144
था	-145
ow	-146
्ष	-147
▁The	-148
ति	-149
ड़	-150
▁on	-151
▁एक	-152
स्	-153
▁P	-154
▁M	-155
et	-156
▁H	-157
ुम	-158
il	-159
िय	-160
ir	-161
▁-	-162
▁लिए	-163
हा	-164
ig	-165
▁1	-166
▁that	-167
▁सम	-168
हीं	-169
्या	-170
ती	-171
ch	-172
▁फ	-173
्ट	-174
▁अप	-175
▁उन	-176
▁जो	-177
▁तो	-178
▁he	-179
ment	-180
▁B	-181
▁सा	-182
▁नहीं	-183
ol	-184
वा	-185
ith	-186
▁दे	-187
▁it	-188
▁as	-189
▁तुम	-190
▁नि	-191
ra	-192
▁हम	-193
रा	-194
से	-195
दा	-196
िया	-197
ill	-198
▁an	-199
▁or	-200
▁भी	-201
od	-202
▁not	-203
if	-204
▁W	-205
▁ने	-206
त्र	-207
का	-208
ल्	-209
▁st	-210
सी	-211
ess	-212
ul	-213
▁with	-214
ter	-215
▁रा	-216
▁जि	-217
▁pro	-218
ri	-219
her	-220
▁are	-221
ge	-222
▁G	-223
▁D	-224
▁de	-225
▁ha	-226
▁'	-227
▁या	-228
▁बा	-229
री	-230
कार	-231
गा	-232
ate	-233
▁con	-234
नी	-235
ab	-236
▁R	-237
▁su	-238
▁we	-239
क्ष	-240
ld	-241
▁किया	-242
ज़	-243
▁अन	-244
▁se	-245
ास	-246
rom	-247
op	-248
▁यह	-249
res	-250
▁ही	-251
ले	-252
▁2	-253
ers	-254
सा	-255
▁L	-256
th	-257
ष्ट	-258
nt	-259
ak	-260
की	-261
ेश	-262
▁com	-263
ारा	-264
कर	-265
ist	-266
▁by	-267
▁sh	-268
▁N	-269
मा	-270
▁करने	-271
▁थ	-272
ht	-273
ंग	-274
▁अध	-275
▁मु	-276
pe	-277
त्	-278
ain	-279
▁लोग	-280
▁was	-281
▁वह	-282
िर	-283
▁have	-284
ity	-285
▁they	-286
iv	-287
▁from	-288
▁स्	-289
▁ex	-290
▁them	-291
▁हु	-292
▁will	-293
क्त	-294
est	-295
▁कु	-296
all	-297
us	-298
em	-299
▁O	-300
and	-301
कि	-302
▁दि	-303
▁F	-304
▁v	-305
▁who	-306
▁E	-307
ah	-308
▁k	-309
▁कार	-310
▁रह	-311
ाम	-312
▁ड	-313
ore	-314
▁this	-315
ive	-316
ich	-317
ie	-318
ac	-319
ant	-320
um	-321
▁"	-322
▁उप	-323
ारे	-324
ाह	-325
न्ह	-326
qu	-327
▁सक	-328
द्	-329
ction	-330
▁Ind	-331
▁has	-332
▁r	-333
▁अपने	-334
pp	-335
ियों	-336
ies	-337
▁He	-338
art	-339
ारी	-340
▁at	-341
▁वे	-342
मान	-343
▁था	-344
ure	-345
os	-346
▁ले	-347
▁ऐ	-348
िल	-349
▁which	-350
ia	-351
स्त	-352
un	-353
ort	-354
▁ध	-355
ould	-356
रे	-357
▁ne	-358
▁All	-359
वि	-360
ूप	-361
el	-362
▁their	-363
्च	-364
गे	-365
oc	-366
ard	-367
▁पू	-368
▁सु	-369
्री	-370
▁भार	-371
red	-372
ight	-373
भा	-374
our	-375
ind	-376
ord	-377
▁his	-378
▁जिस	-379
ंत	-380
00	-381
▁आप	-382
▁al	-383
में	-384
▁गया	-385
▁पह	-386
ैं	-387
▁उन्ह	-388
ओं	-389
pt	-390
ंध	-391
▁तथा	-392
▁do	-393
ous	-394
▁वाल	-395
दि	-396
▁all	-397
्ह	-398
▁le	-399
▁कुछ	-400
ust	-401
ose	-402
▁ch	-403
ली	-404
te	-405
▁छ	-406
ther	-407
▁In	-408
▁किसी	-409
▁ख़	-410
▁whe	-411
▁tr	-412
▁द्व	-413
ीन	-414
▁तुम्ह	-415
ूल	-416
▁K	-417
▁दो	-418
ong	-419
▁अनु	-420
▁स्व	-421
ud	-422
age	-423
ag	-424
▁साथ	-425
ome	-426
ial	-427
ाप	-428
ुदा	-429
▁मे	-430
▁Allah	-431
▁Th	-432
▁जब	-433
को	-434
▁And	-435
देश	-436
▁घ	-437
▁19	-438
ame	-439
म्	-440
▁रूप	-441
खा	-442
▁We	-443
ोज	-444
▁चाह	-445
▁अधिक	-446
▁U	-447
▁कोई	-448
▁निर्	-449
ंद	-450
▁wor	-451
ंड	-452
ाय	-453
cc	-454
ated	-455
ans	-456
ुर	-457
द्ध	-458
ance	-459
ount	-460
▁उनके	-461
▁विश	-462
▁your	-463
गी	-464
▁ला	-465
ार्	-466
▁me	-467
▁थे	-468
▁sa	-469
▁ट	-470
..	-471
▁तक	-472
भी	-473
▁द्वारा	-474
▁pl	-475
ip	-476
▁go	-477
न्द	-478
ect	-479
▁dis	-480
ढ़	-481
▁करें	-482
▁करते	-483
▁ab	-484
▁पा	-485
▁व्य	-486
▁प्रति	-487
rou	-488
▁राज	-489
गर	-490
▁लोगों	-491
▁भा	-492
av	-493
ast	-494
ाना	-495
र्व	-496
▁बना	-497
ear	-498
▁दिया	-499
नों	-500
▁क्ष	-501
▁परि	-502
▁us	-503
क़	-504
ide	-505
ry	-506
▁वर्	-507
able	-508
ost	-509
योग	-510
▁India	-511
त्त	-512
▁can	-513
ff	-514
▁im	-515
▁any	-516
▁जाए	-517
▁बह	-518
▁there	-519
▁but	-520
लाह	-521
ंत्र	-522
ok	-523
ुत	-524
▁un	-525
▁pe	-526
▁कह	-527
▁भारत	-528
धार	-529
nder	-530
▁मा	-531
now	-532
▁comp	-533
▁फिर	-534
▁ad	-535
जी	-536
ये	-537
▁en	-538
▁man	-539
ाद	-540
▁up	-541
ish	-542
िए	-543
▁राष्ट	-544
og	-545
▁तर	-546
▁अल्	-547
▁सि	-548
▁कार्य	-549
ary	-550
ap	-551
क्	-552
▁one	-553
▁ये	-554
▁him	-555
रण	-556
▁मैं	-557
▁j	-558
्ञ	-559
ुन	-560
▁अव	-561
▁कहा	-562
क्र	-563
▁so	-564
▁स्थ	-565
ult	-566
▁जाता	-567
▁J	-568
बंध	-569
▁V	-570
ice	-571
▁been	-572
्छ	-573
▁other	-574
▁per	-575
▁रहे	-576
▁उसके	-577
क्ति	-578
so	-579
फ़	-580
▁क्या	-581
▁रख	-582
out	-583
▁इन	-584
▁सब	-585
one	-586
ople	-587
▁res	-588
▁were	-589
ical	-590
per	-591
▁ई	-592
ूर	-593
ष्	-594
▁करना	-595
▁अल्लाह	-596
ru	-597
ions	-598
▁ज़	-599
ik	-600
ence	-601
ड़ा	-602
gh	-603
au	-604
नि	-605
ib	-606
▁ख़ुदा	-607
▁had	-608
ress	-609
▁cont	-610
pl	-611
▁It	-612
▁अपनी	-613
ire	-614
▁थी	-615
द्य	-616
▁सर	-617
ंच	-618
ail	-619
ानी	-620
ब्	-621
▁3	-622
जा	-623
न्न	-624
▁फ़	-625
▁those	-626
iz	-627
▁मह	-628
are	-629
vel	-630
01	-631
▁am	-632
च्छ	-633
ake	-634
ine	-635
▁when	-636
ime	-637
▁said	-638
▁ag	-639
त्य	-640
र्ण	-641
ase	-642
▁जी	-643
स्थ	-644
▁Y	-645
▁people	-646
▁बात	-647
ations	-648
▁know	-649
मी	-650
▁हुए	-651
्यों	-652
ign	-653
दी	-654
very	-655
ue	-656
▁shall	-657
पर	-658
orm	-659
▁सू	-660
ile	-661
▁inc	-662
▁विक	-663
▁उन्हें	-664
▁करता	-665
▁under	-666
▁सी	-667
▁out	-668
▁/	-669
vers	-670
ang	-671
ade	-672
्रे	-673
▁ind	-674
▁part	-675
▁होता	-676
िन	-677
ub	-678
वाल	-679
ath	-680
▁“	-681
श्च	-682
ings	-683
▁cl	-684
▁क़	-685
▁no	-686
ens	-687
ेत्र	-688
▁what	-689
▁ओ	-690
▁int	-691
ace	-692
rit	-693
ोंने	-694
▁रहा	-695
ड़े	-696
▁bel	-697
▁its	-698
▁ar	-699
ach	-700
▁God	-701
▁सकता	-702
कृ	-703
िका	-704
▁also	-705
ep	-706
▁co	-707
▁उसे	-708
ाइ	-709
ाप्त	-710
▁if	-711
चार	-712
ian	-713
▁हि	-714
▁दी	-715
▁Ch	-716
ass	-717
▁our	-718
▁बी	-719
act	-720
▁ev	-721
र्थ	-722
▁जान	-723
ber	-724
बर	-725
च्च	-726
▁गु	-727
▁St	-728
मे	-729
वर्	-730
ूस	-731
▁_	-732
▁क्षेत्र	-733
▁मान	-734
▁देख	-735
टा	-736
▁comm	-737
ious	-738
lic	-739
▁may	-740
ren	-741
▁बहुत	-742
▁समय	-743
▁राष्ट्र	-744
ड़ी	-745
▁te	-746
ज्ञ	-747
reat	-748
▁मि	-749
दान	-750
ise	-751
▁Lord	-752
पू	-753
▁app	-754
हर	-755
▁पु	-756
भि	-757
du	-758
र्म	-759
▁जै	-760
ual	-761
▁बाद	-762
ident	-763
ोल	-764
▁पै	-765
vern	-766
ree	-767
शन	-768
वन	-769
▁आय	-770
port	-771
▁acc	-772
ook	-773
ory	-774
ition	-775
▁sc	-776
erv	-777
fore	-778
ियम	-779
▁This	-780
कों	-781
fter	-782
ack	-783
टी	-784
fe	-785
पति	-786
वे	-787
▁तरह	-788
▁year	-789
▁सह	-790
old	-791
▁बे	-792
▁वाले	-793
urn	-794
▁sub	-795
▁Sh	-796
▁would	-797
▁उन्होंने	-798
▁हुआ	-799
▁काम	-800
▁spe	-801
▁पास	-802
वी	-803
ike	-804
▁देश	-805
▁sp	-806
▁पहले	-807
▁only	-808
ject	-809
▁bec	-810
ove	-811
▁अंत	-812
▁such	-813
hed	-814
▁rel	-815
ोक	-816
form	-817
▁”	-818
प्र	-819
▁हमने	-820
ेष	-821
चना	-822
▁tw	-823
▁उत्	-824
▁time	-825
स्था	-826
▁pre	-827
्रीय	-828
▁ना	-829
ause	-830
▁prov	-831
▁होगा	-832
sel	-833
▁जिन	-834
ुल	-835
▁work	-836
▁po	-837
▁उनकी	-838
ater	-839
क्षा	-840
ric	-841
▁यदि	-842
ted	-843
▁तुम्हारे	-844
▁rec	-845
▁then	-846
ational	-847
ौर	-848
▁गई	-849
rib	-850
▁over	-851
▁Go	-852
▁qu	-853
झे	-854
▁बि	-855
▁गए	-856
ख़	-857
▁प्राप्त	-858
्रा	-859
धान	-860
▁सरकार	-861
▁अन्य	-862
▁संबंध	-863
we	-864
▁दिन	-865
ities	-866
▁ear	-867
▁होने	-868
▁fo	-869
▁ओर	-870
▁हू	-871
न्त	-872
▁वर्ष	-873
▁made	-874
▁day	-875
▁पी	-876
▁सम्	-877
धि	-878
▁belie	-879
ild	-880
यों	-881
▁सभी	-882
▁कम	-883
एँ	-884
▁छो	-885
▁विश्व	-886
▁As	-887
हां	-888
▁चु	-889
lect	-890
ound	-891
▁ऐसे	-892
▁5	-893
▁should	-894
▁करो	-895
िक्ष	-896
ward	-897
ied	-898
▁हमारे	-899
गत	-900
लि	-901
▁राष्ट्रपति	-902
स्ता	-903
करण	-904
वं	-905
▁more	-906
▁about	-907
▁नाम	-908
▁4	-909
▁like	-910
▁than	-911
vernment	-912
▁प्रा	-913
▁my	-914
दार	-915
ces	-916
▁some	-917
wn	-918
▁झ	-919
▁निक	-920
ution	-921
श्य	-922
▁into	-923
▁प्रकार	-924
▁बद	-925
ंक	-926
▁Pro	-927
▁सकते	-928
एं	-929
टे	-930
▁साम	-931
▁new	-932
ife	-933
▁[	-934
tern	-935
▁ता	-936
ert	-937
▁ass	-938
▁em	-939
▁say	-940
▁bet	-941
भाव	-942
▁चाहिए	-943
सर	-944
ite	-945
uth	-946
िश	-947
ीय	-948
तीय	-949
ful	-950
▁count	-951
▁मिल	-952
▁&	-953
ark	-954
▁off	-955
▁200	-956
▁इसके	-957
▁fe	-958
▁Com	-959
ग्र	-960
▁बु	-961
aj	-962
▁ऊ	-963
तर	-964
▁बढ़	-965
▁rem	-966
▁But	-967
स्ट	-968
▁Wh	-969
▁cons	-970
▁trans	-971
वर	-972
way	-973
्स	-974
iss	-975
▁They	-976
▁pr	-977
िप	-978
▁किए	-979
▁उसकी	-980
चा	-981
velop	-982
▁हर	-983
ons	-984
त्व	-985
▁जाने	-986
ness	-987
▁होती	-988
बा	-989
sh	-990
),	-991
▁Se	-992
हाँ	-993
ंप	-994
जन	-995
...	-996
▁अच्छ	-997
own	-998
शा	-999
ोजना	-1000
तिक	-1001
stit	-1002
gr	-1003
ूम	-1004
▁two	-1005
दर्	-1006
cept	-1007
ific	-1008
▁ची	-1009
▁नी	-1010
▁दूस	-1011
▁रस	-1012
▁reg	-1013
माण	-1014
oy	-1015
▁ईमान	-1016
ank	-1017
रो	-1018
▁ठ	-1019
hen	-1020
शी	-1021
▁अगर	-1022
▁करे	-1023
पूर्ण	-1024
यी	-1025
ments	-1026
बी	-1027
मत	-1028
िति	-1029
▁good	-1030
▁ऐसा	-1031
▁एवं	-1032
▁हों	-1033
गार	-1034
me	-1035
ास्त	-1036
▁these	-1037
ved	-1038
▁राज्य	-1039
द्योग	-1040
▁समझ	-1041
▁form	-1042
▁पहु	-1043
▁after	-1044
▁ro	-1045
▁कारण	-1046
▁act	-1047
▁So	-1048
ily	-1049
▁Un	-1050
▁विकास	-1051
सार	-1052
▁des	-1053
पाद	-1054
▁अब	-1055
led	-1056
▁व्यक्ति	-1057
▁Re	-1058
ates	-1059
ient	-1060
▁201	-1061
▁before	-1062
▁भारतीय	-1063
▁लग	-1064
ond	-1065
ची	-1066
ात	-1067
▁(_	-1068
▁ent	-1069
ph	-1070
▁pers	-1071
▁कृ	-1072
▁ob	-1073
्यू	-1074
ne	-1075
▁मो	-1076
ेंगे	-1077
ध्य	-1078
cess	-1079
▁मुझे	-1080
ave	-1081
▁De	-1082
वल	-1083
त्म	-1084
▁रसूल	-1085
ts	-1086
▁हुई	-1087
▁again	-1088
llow	-1089
ाली	-1090
▁हा	-1091
ुक्त	-1092
ाइल	-1093
resident	-1094
▁bl	-1095
द्र	-1096
▁स्त	-1097
ors	-1098
वार	-1099
ple	-1100
टर	-1101
▁dec	-1102
▁His	-1103
cy	-1104
eng	-1105
▁see	-1106
▁right	-1107
ेज	-1108
ght	-1109
▁जन	-1110
ink	-1111
किन	-1112
▁gu	-1113
▁पूर्व	-1114
▁fir	-1115
धा	-1116
यन	-1117
▁व्या	-1118
ower	-1119
ष्ठ	-1120
row	-1121
ेल	-1122
▁लगा	-1123
ज़ा	-1124
मु	-1125
▁ac	-1126
तन	-1127
▁मूल	-1128
▁sy	-1129
▁दु	-1130
▁क्यों	-1131
▁her	-1132
▁ra	-1133
▁life	-1134
ob	-1135
rough	-1136
▁An	-1137
▁उसने	-1138
erm	-1139
पी	-1140
cial	-1141
▁लेकिन	-1142
▁दिखा	-1143
▁लिया	-1144
▁बन	-1145
eth	-1146
ced	-1147
▁Con	-1148
क्रम	-1149
aw	-1150
▁वा	-1151
तः	-1152
▁‘	-1153
ener	-1154
▁giv	-1155
▁world	-1156
▁call	-1157
▁दोनों	-1158
▁Indian	-1159
▁जाती	-1160
ism	-1161
▁(1	-1162
िम	-1163
▁प्रश	-1164
▁तुम्हें	-1165
arm	-1166
▁Pr	-1167
लों	-1168
▁मौ	-1169
pect	-1170
▁सद	-1171
▁fl	-1172
▁क्र	-1173
दे	-1174
▁set	-1175
▁where	-1176
▁pres	-1177
ोर	-1178
▁वै	-1179
लय	-1180
▁अस	-1181
rent	-1182
▁being	-1183
वाद	-1184
▁through	-1185
▁अपना	-1186
ाला	-1187
▁उपयोग	-1188
▁ऐसी	-1189
लग	-1190
ange	-1191
▁खा	-1192
▁You	-1193
▁develop	-1194
▁way	-1195
).	-1196
्ड	-1197
other	-1198
▁आव	-1199
▁विशेष	-1200
▁जीवन	-1201
▁चल	-1202
▁होते	-1203
▁every	-1204
▁6	-1205
▁cre	-1206
▁अभि	-1207
ning	-1208
▁inv	-1209
▁great	-1210
हाय	-1211
चे	-1212
▁à	-1213
▁dif	-1214
▁need	-1215
ally	-1216
ft	-1217
ves	-1218
xt	-1219
▁ग्र	-1220
ating	-1221
eed	-1222
▁There	-1223
li	-1224
ever	-1225
िंग	-1226
▁प्रदान	-1227
uring	-1228
int	-1229
धिक	-1230
तों	-1231
ck	-1232
▁बारे	-1233
▁रही	-1234
igh	-1235
end	-1236
▁बीच	-1237
ative	-1238
▁ढ	-1239
▁If	-1240
▁बै	-1241
ull	-1242
oth	-1243
व्य	-1244
▁रु	-1245
▁Bh	-1246
les	-1247
▁वाला	-1248
▁serv	-1249
▁मुख	-1250
▁down	-1251
ween	-1252
▁sec	-1253
▁मन	-1254
▁thou	-1255
▁make	-1256
कारी	-1257
its	-1258
▁बार	-1259
फल	-1260
▁भाग	-1261
olog	-1262
▁country	-1263
ided	-1264
▁att	-1265
▁यु	-1266
▁उत्त	-1267
ax	-1268
▁add	-1269
चित	-1270
।"	-1271
▁समा	-1272
▁br	-1273
काश	-1274
▁खु	-1275
▁श्री	-1276
▁Is	-1277
▁शिक्ष	-1278
▁निय	-1279
▁जैसे	-1280
▁pol	-1281
ages	-1282
▁does	-1283
▁cent	-1284
▁Government	-1285
▁President	-1286
▁produ	-1287
ेक	-1288
▁follow	-1289
▁between	-1290
▁name	-1291
▁सहाय	-1292
pr	-1293
ular	-1294
▁used	-1295
▁वास्त	-1296
▁स्था	-1297
ublic	-1298
▁उसका	-1299
ंभ	-1300
▁ऑ	-1301
तना	-1302
ible	-1303
pen	-1304
▁आधार	-1305
ठा	-1306
ख्या	-1307
▁ke	-1308
डी	-1309
िस	-1310
hi	-1311
वेश	-1312
▁En	-1313
▁pos	-1314
ood	-1315
▁आज	-1316
▁सेवा	-1317
ural	-1318
षण	-1319
stem	-1320
ised	-1321
▁well	-1322
▁could	-1323
▁Min	-1324
▁first	-1325
िला	-1326
▁कै	-1327
▁did	-1328
▁न्या	-1329
कता	-1330
▁7	-1331
pos	-1332
gan	-1333
ble	-1334
ty	-1335
▁Him	-1336
als	-1337
▁inte	-1338
▁Act	-1339
▁come	-1340
oci	-1341
▁person	-1342
▁जाएगा	-1343
्ल	-1344
▁देने	-1345
▁years	-1346
▁8	-1347
und	-1348
हित	-1349
▁eff	-1350
षा	-1351
lp	-1352
▁For	-1353
▁most	-1354
▁केवल	-1355
▁चीज़	-1356
धन	-1357
▁col	-1358
▁उनका	-1359
any	-1360
▁ret	-1361
▁दृ	-1362
▁upon	-1363
▁गा	-1364
▁Ex	-1365
▁many	-1366
ल्प	-1367
▁माल	-1368
▁हमें	-1369
▁प्रयोग	-1370
pport	-1371
▁मेरे	-1372
ून	-1373
▁sign	-1374
▁रब	-1375
▁0	-1376
ग़	-1377
ving	-1378
ents	-1379
ार्थ	-1380
▁आवश्य	-1381
ature	-1382
ility	-1383
▁dist	-1384
con	-1385
▁सो	-1386
▁unt	-1387
▁जिसमें	-1388
▁how	-1389
▁even	-1390
▁back	-1391
ited	-1392
ूद	-1393
lud	-1394
▁very	-1395
ज्ञान	-1396
▁earth	-1397
क्षण	-1398
▁हूँ	-1399
▁Comm	-1400
▁दर	-1401
▁बो	-1402
▁वही	-1403
▁num	-1404
▁विचार	-1405
▁सर्व	-1406
रिक	-1407
fer	-1408
▁ord	-1409
ather	-1410
ven	-1411
▁mess	-1412
▁निश्च	-1413
▁ed	-1414
▁मार्	-1415
▁स्थान	-1416
▁among	-1417
ियां	-1418
ting	-1419
ister	-1420
▁18	-1421
▁get	-1422
▁pur	-1423
iew	-1424
णी	-1425
▁own	-1426
र्य	-1427
▁ताकि	-1428
▁स्प	-1429
uc	-1430
▁against	-1431
ित्र	-1432
▁पैदा	-1433
▁मै	-1434
▁tra	-1435
air	-1436
पित	-1437
ुट	-1438
self	-1439
amm	-1440
elie	-1441
▁rep	-1442
▁वाली	-1443
uch	-1444
▁प्रत्य	-1445
्न	-1446
न्तु	-1447
aking	-1448
▁सबसे	-1449
▁इसे	-1450
ha	-1451
▁बड़ा	-1452
▁उसी	-1453
रों	-1454
िता	-1455
▁<	-1456
▁help	-1457
irect	-1458
ंस	-1459
▁जाना	-1460
▁निर्धार	-1461
त्ता	-1462
िनियम	-1463
hes	-1464
यास	-1465
▁माम	-1466
ission	-1467
▁हमारी	-1468
तु	-1469
▁अथ	-1470
▁inst	-1471
▁विष	-1472
▁hand	-1473
▁पार	-1474
get	-1475
ati	-1476
लब्	-1477
▁अधिनियम	-1478
ute	-1479
▁take	-1480
र्ष	-1481
र्क	-1482
▁रो	-1483
▁end	-1484
▁sent	-1485
▁धारा	-1486
हार	-1487
▁देता	-1488
▁तब	-1489
ision	-1490
ures	-1491
▁val	-1492
▁जाते	-1493
▁अधिकार	-1494
of	-1495
ased	-1496
▁शु	-1497
▁दा	-1498
▁इसमें	-1499
ेर	-1500
chn	-1501
▁writ	-1502
▁राष्ट्रीय	-1503
▁आर	-1504
लिए	-1505
ूत	-1506
▁कंप	-1507
▁char	-1508
▁mod	-1509
▁Ad	-1510
▁mem	-1511
ract	-1512
201	-1513
भाग	-1514
▁आस	-1515
▁डि	-1516
▁use	-1517
formation	-1518
▁उपलब्	-1519
ियाँ	-1520
▁योजना	-1521
▁Ne	-1522
ick	-1523
▁disc	-1524
▁bu	-1525
▁she	-1526
▁believe	-1527
▁gr	-1528
round	-1529
▁>	-1530
▁given	-1531
not	-1532
▁उत्पाद	-1533
ब्द	-1534
पा	-1535
▁ap	-1536
▁जिसे	-1537
▁व्यव	-1538
ants	-1539
ुनिया	-1540
▁बस	-1541
▁system	-1542
▁लिख	-1543
read	-1544
▁अथवा	-1545
rong	-1546
द्योगिक	-1547
▁turn	-1548
▁mon	-1549
▁just	-1550
▁State	-1551
ished	-1552
▁child	-1553
▁हे	-1554
ee	-1555
ock	-1556
ices	-1557
बे	-1558
▁because	-1559
▁संदेश	-1560
▁must	-1561
▁requ	-1562
▁ph	-1563
▁पश्च	-1564
▁ins	-1565
▁On	-1566
▁फ़ाइल	-1567
▁mat	-1568
▁import	-1569
▁सामान	-1570
▁Sc	-1571
कृत	-1572
ूह	-1573
▁cert	-1574
ताओं	-1575
▁To	-1576
वरण	-1577
▁परवर	-1578
▁बल्	-1579
▁शाम	-1580
्यान	-1581
▁उससे	-1582
ंज	-1583
ital	-1584
दिगार	-1585
ives	-1586
मिक	-1587
▁सूचना	-1588
▁शुर	-1589
वान	-1590
▁क्योंकि	-1591
▁दर्	-1592
ii	-1593
up	-1594
▁उनसे	-1595
सं	-1596
belie	-1597
▁ye	-1598
▁परवरदिगार	-1599
▁pass	-1600
ash	-1601
pend	-1602
क्रिया	-1603
भव	-1604
▁मार्ग	-1605
▁ज्ञ	-1606
▁place	-1607
▁diffe	-1608
ror	-1609
ctions	-1610
▁hum	-1611
▁पुर	-1612
काल	-1613
▁महत्व	-1614
▁exp	-1615
ides	-1616
िट	-1617
▁तै	-1618
ari	-1619
▁स्ट	-1620
iness	-1621
त्या	-1622
arch	-1623
▁10	-1624
श्व	-1625
▁account	-1626
▁सकती	-1627
▁lit	-1628
▁बैं	-1629
▁लो	-1630
ouse	-1631
alth	-1632
▁long	-1633
▁car	-1634
त्रा	-1635
▁Am	-1636
rest	-1637
▁When	-1638
▁9	-1639
▁दौर	-1640
ivers	-1641
धी	-1642
▁संप	-1643
ene	-1644
▁equ	-1645
▁मंत्र	-1646
डर	-1647
▁डाल	-1648
▁शिक्षा	-1649
▁करती	-1650
▁give	-1651
▁:	-1652
▁wom	-1653
▁अर्	-1654
▁पहुँ	-1655
▁power	-1656
▁व्याप	-1657
tle	-1658
ix	-1659
यार	-1660
▁imp	-1661
▁उपलब्ध	-1662
ten	-1663
▁av	-1664
▁sm	-1665
ुक	-1666
ral	-1667
ries	-1668
▁मू	-1669
▁Al	-1670
ट्ट	-1671
▁वृ	-1672
कृति	-1673
▁दूसरे	-1674
▁cap	-1675
▁मद	-1676
▁स्थिति	-1677
▁डा	-1678
▁cle	-1679
भिन्न	-1680
ुष	-1681
ES	-1682
▁cond	-1683
▁min	-1684
▁लोक	-1685
▁योग	-1686
▁इसलिए	-1687
▁gener	-1688
▁कें	-1689
▁Day	-1690
ंति	-1691
▁जर	-1692
ंजी	-1693
ified	-1694
▁संग	-1695
arn	-1696
▁includ	-1697
▁बच्च	-1698
▁पुन	-1699
▁सहायता	-1700
▁जिन्ह	-1701
ोट	-1702
▁sure	-1703
युक्त	-1704
▁छोड़	-1705
नेवाल	-1706
ata	-1707
▁inter	-1708
▁प्रभाव	-1709
▁prom	-1710
▁उच्च	-1711
ेद	-1712
▁होना	-1713
▁water	-1714
ंश	-1715
tt	-1716
तान	-1717
▁बड़ी	-1718
▁हाथ	-1719
uthor	-1720
ork	-1721
▁No	-1722
▁महा	-1723
ष्टि	-1724
ug	-1725
selves	-1726
▁nor	-1727
▁gl	-1728
▁जु	-1729
▁now	-1730
▁वित	-1731
▁away	-1732
▁उद्	-1733
▁उनमें	-1734
न्द्र	-1735
ional	-1736
इन	-1737
▁अर्थ	-1738
▁Hind	-1739
▁let	-1740
ेट	-1741
000	-1742
ars	-1743
▁होगी	-1744
▁हूं	-1745
क्ट	-1746
▁found	-1747
ताब	-1748
एस	-1749
roup	-1750
▁कभी	-1751
स्तु	-1752
वाह	-1753
ared	-1754
ोप	-1755
▁मेरी	-1756
oun	-1757
ale	-1758
यं	-1759
ined	-1760
▁अधीन	-1761
▁शामिल	-1762
▁कई	-1763
uk	-1764
▁men	-1765
▁प्रण	-1766
▁सके	-1767
▁विभिन्न	-1768
▁स्वा	-1769
▁%	-1770
▁number	-1771
ern	-1772
▁lar	-1773
ety	-1774
▁आया	-1775
ूट	-1776
ana	-1777
र्ट	-1778
▁state	-1779
▁अति	-1780
्यालय	-1781
▁want	-1782
▁fore	-1783
."	-1784
ोह	-1785
conom	-1786
▁बल्कि	-1787
ship	-1788
day	-1789
ंट	-1790
lease	-1791
▁बता	-1792
▁अंतर	-1793
स्थान	-1794
▁इससे	-1795
▁दौरान	-1796
tc	-1797
ists	-1798
▁Q	-1799
▁लिये	-1800
▁हाल	-1801
▁conf	-1802
हत	-1803
▁lo	-1804
▁lead	-1805
▁कहते	-1806
▁सदस	-1807
▁करके	-1808
▁fin	-1809
▁heav	-1810
▁Our	-1811
तम	-1812
▁किस	-1813
angu	-1814
त्मक	-1815
ict	-1816
the	-1817
▁conc	-1818
▁आगे	-1819
▁inf	-1820
▁during	-1821
less	-1822
▁सुर	-1823
▁यहाँ	-1824
▁Cent	-1825
▁ब्र	-1826
▁अनुस	-1827
ters	-1828
▁fam	-1829
▁15	-1830
ण्ड	-1831
रूप	-1832
मुख	-1833
▁same	-1834
ेम	-1835
र्इ	-1836
ody	-1837
▁main	-1838
▁अनुसार	-1839
ys	-1840
▁section	-1841
▁पता	-1842
कट	-1843
▁भाषा	-1844
▁199	-1845
▁दूर	-1846
ledge	-1847
्ला	-1848
▁while	-1849
▁बैठ	-1850
iod	-1851
ruct	-1852
▁heart	-1853
imes	-1854
▁कर्म	-1855
▁cur	-1856
▁det	-1857
▁spec	-1858
▁अवसर	-1859
▁whom	-1860
▁occ	-1861
ology	-1862
सल	-1863
ron	-1864
▁rece	-1865
▁जहां	-1866
▁इसी	-1867
▁each	-1868
▁भूम	-1869
▁अंग	-1870
▁present	-1871
▁विषय	-1872
▁here	-1873
द्धि	-1874
ired	-1875
▁अभ	-1876
ेह	-1877
▁होंगे	-1878
▁सूची	-1879
▁शी	-1880
▁case	-1881
▁development	-1882
ैन	-1883
ered	-1884
▁तरफ	-1885
▁ग़	-1886
ासन	-1887
ोजन	-1888
स्व	-1889
▁उनको	-1890
lim	-1891
▁land	-1892
▁मुख्य	-1893
▁ask	-1894
▁यही	-1895
▁पड़	-1896
▁पि	-1897
दन	-1898
फी	-1899
▁अग	-1900
▁est	-1901
शि	-1902
▁याद	-1903
▁sin	-1904
ग्रह	-1905
:%	-1906
्म	-1907
aken	-1908
▁आई	-1909
▁art	-1910
▁परिवर्	-1911
▁लाभ	-1912
ption	-1913
▁सामने	-1914
▁process	-1915
▁इसका	-1916
▁pay	-1917
har	-1918
ya	-1919
यर	-1920
▁12	-1921
जे	-1922
▁cor	-1923
▁शै	-1924
▁organ	-1925
▁जिसके	-1926
ality	-1927
मीन	-1928
▁def	-1929
▁ser	-1930
ains	-1931
▁resp	-1932
▁book	-1933
▁called	-1934
▁स्वी	-1935
▁१	-1936
▁–	-1937
▁stud	-1938
▁cour	-1939
▁सामान्य	-1940
▁etc	-1941
▁adv	-1942
▁20	-1943
▁उठा	-1944
▁order	-1945
▁both	-1946
▁प्रक्रिया	-1947
और	-1948
EN	-1949
▁पूरा	-1950
ित्व	-1951
▁another	-1952
▁loc	-1953
su	-1954
▁अनुम	-1955
▁स्पष्ट	-1956
▁पूर्ण	-1957
▁करेगा	-1958
▁dem	-1959
▁देते	-1960
▁open	-1961
▁things	-1962
लो	-1963
▁law	-1964
▁word	-1965
▁Te	-1966
कर्	-1967
▁Res	-1968
सम	-1969
▁चि	-1970
▁comple	-1971
ics	-1972
▁शा	-1973
▁उसमें	-1974
ize	-1975
ience	-1976
▁truth	-1977
▁संबंधित	-1978
▁तैयार	-1979
amp	-1980
ियो	-1981
▁(2	-1982
▁Then	-1983
▁ऋ	-1984
man	-1985
▁संख्या	-1986
▁return	-1987
▁पद	-1988
wards	-1989
▁prev	-1990
▁उत्तर	-1991
प्त	-1992
▁Ar	-1993
▁fac	-1994
▁start	-1995
▁list	-1996
त्ति	-1997
▁sur	-1998
▁चुन	-1999
▁संस्	-2000
▁घर	-2001
▁educ	-2002
▁file	-2003
▁बाहर	-2004
▁जाएँ	-2005
▁बदल	-2006
▁अलग	-2007
▁जल	-2008
▁वास्तव	-2009
ंतु	-2010
▁aff	-2011
▁mark	-2012
▁term	-2013
▁bus	-2014
▁11	-2015
▁निर्माण	-2016
ained	-2017
ov	-2018
▁ce	-2019
▁public	-2020
lish	-2021
▁period	-2022
bers	-2023
▁dev	-2024
▁indust	-2025
जार	-2026
▁लगे	-2027
▁चाहते	-2028
▁different	-2029
▁Do	-2030
▁बढ़ा	-2031
▁find	-2032
▁play	-2033
▁beh	-2034
ज्य	-2035
▁partic	-2036
▁indeed	-2037
▁प्रत्येक	-2038
सि	-2039
हरा	-2040
▁Par	-2041
▁ref	-2042
टना	-2043
▁best	-2044
▁भेज	-2045
लेख	-2046
▁Mus	-2047
तंत्र	-2048
्श	-2049
▁कान	-2050
▁आपको	-2051
▁पृ	-2052
▁wind	-2053
▁कौ	-2054
▁three	-2055
▁certain	-2056
▁without	-2057
ूँ	-2058
▁प्रौ	-2059
▁fil	-2060
▁Tr	-2061
▁came	-2062
rop	-2063
िये	-2064
▁Mess	-2065
▁commun	-2066
ंचा	-2067
▁पत्र	-2068
ीक	-2069
▁त्र	-2070
▁नई	-2071
वास	-2072
हास	-2073
▁सुन	-2074
erg	-2075
▁fact	-2076
▁National	-2077
▁econom	-2078
▁sou	-2079
▁रंग	-2080
गम	-2081
▁knowledge	-2082
्यादा	-2083
▁show	-2084
▁bro	-2085
▁आद	-2086
▁पढ़	-2087
▁fa	-2088
▁fear	-2089
▁sl	-2090
▁भर	-2091
▁अध्य	-2092
▁बनाने	-2093
ived	-2094
▁तीन	-2095
पि	-2096
▁अने	-2097
संद	-2098
▁शब्द	-2099
र्या	-2100
▁poss	-2101
▁techn	-2102
▁{	-2103
▁संर	-2104
▁बड़े	-2105
▁अच्छा	-2106
ालन	-2107
▁ty	-2108
ines	-2109
▁पुस्त	-2110
▁जारी	-2111
▁relig	-2112
stitution	-2113
आई	-2114
▁read	-2115
▁मौज	-2116
▁ext	-2117
दर्श	-2118
▁गुण	-2119
ोल्	-2120
ध्यम	-2121
छे	-2122
▁OF	-2123
▁कार्यक्रम	-2124
▁प्रार	-2125
▁नियम	-2126
ैर	-2127
▁किताब	-2128
▁पूरी	-2129
▁means	-2130
mit	-2131
▁शुरू	-2132
इट	-2133
▁support	-2134
ai	-2135
▁शि	-2136
▁interest	-2137
▁author	-2138
esh	-2139
▁प्रकाश	-2140
▁स्वयं	-2141
▁avail	-2142
aid	-2143
▁look	-2144
▁अत्य	-2145
▁तुम्हारी	-2146
ention	-2147
▁आदि	-2148
▁progr	-2149
ament	-2150
▁much	-2151
▁शक्ति	-2152
▁high	-2153
▁information	-2154
बार	-2155
▁नीति	-2156
▁आपके	-2157
ploy	-2158
▁grow	-2159
▁except	-2160
मंत्र	-2161
▁Mah	-2162
ither	-2163
▁Shri	-2164
ner	-2165
▁फै	-2166
▁gra	-2167
▁vis	-2168
▁langu	-2169
▁प्रयास	-2170
here	-2171
ield	-2172
stand	-2173
▁tem	-2174
ination	-2175
▁प्रौद्योगिक	-2176
▁रखा	-2177
ough	-2178
हम	-2179
▁stand	-2180
▁pun	-2181
▁respect	-2182
▁रे	-2183
▁'%	-2184
▁संस्था	-2185
iving	-2186
ालय	-2187
दाय	-2188
▁पानी	-2189
▁चार	-2190
▁कॉ	-2191
▁direct	-2192
धे	-2193
ंब	-2194
टक	-2195
▁ऊपर	-2196
ज़ाब	-2197
▁निश्चय	-2198
riend	-2199
ually	-2200
▁गये	-2201
crib	-2202
ियोजना	-2203
टन	-2204
▁incre	-2205
▁निर्धारित	-2206
पत्र	-2207
.201	-2208
▁वस्तु	-2209
▁#	-2210
▁med	-2211
विद	-2212
▁contin	-2213
▁मदद	-2214
▁full	-2215
शत	-2216
▁खुदा	-2217
म्प	-2218
▁ते	-2219
▁सौ	-2220
▁disbelie	-2221
ocial	-2222
ccess	-2223
▁ज्ञान	-2224
ized	-2225
▁कल	-2226
भार	-2227
▁परिण	-2228
हन	-2229
▁अनेक	-2230
▁government	-2231
▁परियोजना	-2232
▁मी	-2233
▁ली	-2234
▁तू	-2235
रती	-2236
स्थित	-2237
oh	-2238
rence	-2239
AR	-2240
▁हेतु	-2241
▁मार	-2242
▁Minister	-2243
क्षित	-2244
ूं	-2245
▁चाहता	-2246
▁सिवा	-2247
अप	-2248
▁जग	-2249
ms	-2250
▁var	-2251
▁गिर	-2252
ूरी	-2253
▁दुनिया	-2254
्रो	-2255
cl	-2256
▁प्रधान	-2257
ेशक	-2258
ffic	-2259
▁Say	-2260
▁वी	-2261
ify	-2262
▁गति	-2263
▁करा	-2264
▁धर्म	-2265
▁human	-2266
▁न्याया	-2267
▁group	-2268
▁चला	-2269
▁रुप	-2270
▁women	-2271
▁बनाया	-2272
▁गयी	-2273
▁संघ	-2274
ware	-2275
बन्	-2276
▁oper	-2277
▁think	-2278
ret	-2279
▁Or	-2280
error	-2281
▁गो	-2282
gg	-2283
▁sk	-2284
▁महत्वपूर्ण	-2285
ER	-2286
ृत	-2287
▁small	-2288
बाद	-2289
▁बैंक	-2290
▁उद्योग	-2291
ins	-2292
▁meet	-2293
▁unto	-2294
▁project	-2295
▁स्तर	-2296
शील	-2297
▁clear	-2298
ool	-2299
▁Man	-2300
▁करनेवाल	-2301
रु	-2302
▁बन्द	-2303
र्ड	-2304
▁आए	-2305
ros	-2306
olution	-2307
ND	-2308
eds	-2309
▁That	-2310
▁prof	-2311
▁created	-2312
षि	-2313
▁वित्त	-2314
▁तुम्हारा	-2315
▁che	-2316
▁बेह	-2317
▁अन्त	-2318
पन	-2319
▁जोड़	-2320
▁exam	-2321
▁श्रे	-2322
▁sim	-2323
▁स्क	-2324
▁cannot	-2325
mb	-2326
▁जिसने	-2327
▁ver	-2328
ried	-2329
▁डर	-2330
▁last	-2331
▁प्रो	-2332
thing	-2333
▁डे	-2334
▁My	-2335
▁संस्थान	-2336
▁ध्यान	-2337
▁effect	-2338
▁परिणाम	-2339
▁appe	-2340
▁ज़र	-2341
▁som	-2342
▁भवन	-2343
▁proper	-2344
▁करेंगे	-2345
▁प्रमाण	-2346
▁मत	-2347
▁happ	-2348
▁Le	-2349
▁विदेश	-2350
AT	-2351
नीय	-2352
▁important	-2353
▁rest	-2354
ency	-2355
▁यहां	-2356
▁message	-2357
मित	-2358
ctor	-2359
inal	-2360
▁देना	-2361
enef	-2362
र्थिक	-2363
▁become	-2364
lected	-2365
older	-2366
▁cult	-2367
▁मैंने	-2368
▁बेशक	-2369
rap	-2370
▁bring	-2371
▁ठीक	-2372
▁div	-2373
▁What	-2374
▁बिना	-2375
asht	-2376
▁New	-2377
▁देखा	-2378
▁समूह	-2379
तिहास	-2380
दिष्ट	-2381
▁How	-2382
लन	-2383
▁प्रबंध	-2384
▁नीचे	-2385
▁व्यक्त	-2386
▁प्रतिशत	-2387
stitut	-2388
ोन	-2389
निर्	-2390
▁ca	-2391
▁Book	-2392
ल्क	-2393
▁पो	-2394
▁जमा	-2395
ज़ी	-2396
▁Be	-2397
▁अंतर्	-2398
ways	-2399
▁क्षेत्रों	-2400
▁आवश्यकता	-2401
▁समाज	-2402
⁄4	-2403
▁company	-2404
▁प्रमुख	-2405
hip	-2406
▁(1)	-2407
▁प्रौद्योगिकी	-2408
▁शरी	-2409
द्व	-2410
▁business	-2411
ोल्डर	-2412
tend	-2413
44	-2414
▁amount	-2415
ंख	-2416
▁लेख	-2417
▁सफल	-2418
RB	-2419
▁प्रय	-2420
▁today	-2421
▁taken	-2422
▁बर	-2423
▁surely	-2424
erc	-2425
▁ज्यादा	-2426
lf	-2427
ider	-2428
ID	-2429
▁known	-2430
श्	-2431
▁never	-2432
ember	-2433
por	-2434
ामी	-2435
▁जिसका	-2436
▁लेकर	-2437
▁These	-2438
▁झु	-2439
?"	-2440
▁हिस्	-2441
ense	-2442
वादी	-2443
▁estab	-2444
▁might	-2445
▁head	-2446
▁पीछे	-2447
▁income	-2448
▁pat	-2449
जिक	-2450
इस	-2451
▁wrong	-2452
गू	-2453
▁माध्यम	-2454
▁किन्तु	-2455
▁pri	-2456
▁पाठ	-2457
▁punish	-2458
विधा	-2459
ases	-2460
स्या	-2461
▁जबकि	-2462
▁Pl	-2463
क्स	-2464
ining	-2465
▁ज़मीन	-2466
az	-2467
▁मगर	-2468
भग	-2469
gress	-2470
akes	-2471
ks	-2472
bs	-2473
▁सीमा	-2474
▁सार	-2475
min	-2476
den	-2477
▁विश्वास	-2478
▁children	-2479
ख्त	-2480
म्बर	-2481
▁समर्थ	-2482
icy	-2483
ode	-2484
▁धरती	-2485
▁month	-2486
धारा	-2487
▁समान	-2488
istr	-2489
ls	-2490
▁ele	-2491
ote	-2492
▁लौ	-2493
स्प	-2494
work	-2495
▁दिए	-2496
▁मज	-2497
ल्म	-2498
दारी	-2499
▁कंपनी	-2500
▁various	-2501
▁days	-2502
वृ	-2503
▁ती	-2504
▁applic	-2505
▁विस्त	-2506
▁Me	-2507
▁अतः	-2508
▁होकर	-2509
▁खंड	-2510
▁केंद्र	-2511
▁within	-2512
▁अमे	-2513
▁आर्थिक	-2514
शो	-2515
▁dest	-2516
▁Ram	-2517
▁fun	-2518
▁Z	-2519
ल्ली	-2520
lam	-2521
▁पिछ	-2522
▁put	-2523
▁sch	-2524
▁विंड	-2525
▁bank	-2526
र्ति	-2527
▁forg	-2528
▁कठ	-2529
▁accept	-2530
▁Muslim	-2531
ंह	-2532
put	-2533
▁कृषि	-2534
ably	-2535
▁activ	-2536
▁old	-2537
▁मूल्य	-2538
▁four	-2539
▁PR	-2540
▁themselves	-2541
reed	-2542
्यता	-2543
▁196	-2544
▁view	-2545
▁better	-2546
स्क	-2547
▁बरा	-2548
▁अम	-2549
▁उद्देश	-2550
▁अज़ाब	-2551
▁इसकी	-2552
▁times	-2553
▁आदेश	-2554
▁भे	-2555
▁den	-2556
▁चाहे	-2557
▁faith	-2558
▁appro	-2559
ियन	-2560
-1	-2561
▁खोल	-2562
▁sit	-2563
ternal	-2564
▁window	-2565
▁कला	-2566
▁लड़	-2567
▁proble	-2568
▁mind	-2569
▁evil	-2570
to	-2571
▁friend	-2572
▁allow	-2573
▁सुधार	-2574
▁done	-2575
उस	-2576
▁इनकार	-2577
▁वाय	-2578
▁success	-2579
▁large	-2580
▁transl	-2581
ON	-2582
गें	-2583
▁रखते	-2584
▁रोग	-2585
▁ide	-2586
▁mar	-2587
▁जनता	-2588
मता	-2589
▁Ab	-2590
▁तुमसे	-2591
▁social	-2592
ething	-2593
▁body	-2594
▁जानकारी	-2595
▁भाव	-2596
▁16	-2597
ateg	-2598
▁left	-2599
▁निम्	-2600
▁bas	-2601
▁Raj	-2602
▁श्र	-2603
▁विद्य	-2604
▁move	-2605
▁real	-2606
▁उल्	-2607
▁लगभग	-2608
विध	-2609
rought	-2610
▁पर्या	-2611
▁par	-2612
▁level	-2613
▁बदला	-2614
▁आने	-2615
ey	-2616
avan	-2617
▁स्वीकार	-2618
▁जैसा	-2619
▁छा	-2620
ानों	-2621
▁अभी	-2622
▁employ	-2623
▁अवधि	-2624
▁सारे	-2625
▁हिन्द	-2626
▁25	-2627
▁ऋण	-2628
▁काफी	-2629
rol	-2630
▁going	-2631
lished	-2632
ठन	-2633
▁others	-2634
▁address	-2635
बद्ध	-2636
्ले	-2637
▁Eng	-2638
▁रोक	-2639
▁चौ	-2640
ेशन	-2641
▁समस्या	-2642
):	-2643
oin	-2644
▁निश	-2645
▁keep	-2646
▁नियंत्र	-2647
AN	-2648
र्फ	-2649
▁लागू	-2650
ery	-2651
ttp	-2652
line	-2653
ॉल	-2654
▁मेरा	-2655
▁निकाल	-2656
▁साल	-2657
▁http	-2658
▁education	-2659
▁Gu	-2660
▁जानता	-2661
ically	-2662
▁गण	-2663
▁जगह	-2664
ues	-2665
▁सहयोग	-2666
ium	-2667
med	-2668
▁मिला	-2669
र्च	-2670
ator	-2671
▁वहां	-2672
▁मंद	-2673
माजिक	-2674
▁पक्ष	-2675
▁तरी	-2676
▁गुना	-2677
▁सुविधा	-2678
▁अच्छे	-2679
ulation	-2680
▁leg	-2681
ization	-2682
▁विश्वविद	-2683
▁bo	-2684
oint	-2685
par	-2686
▁195	-2687
▁मानव	-2688
▁मध्य	-2689
▁वक्त	-2690
▁too	-2691
ूब	-2692
▁At	-2693
▁विभाग	-2694
उन	-2695
ram	-2696
▁क़ौ	-2697
▁धन	-2698
▁खोज	-2699
▁exper	-2700
णा	-2701
▁परिवर्तन	-2702
आर	-2703
ferred	-2704
ran	-2705
▁विज्ञान	-2706
▁लक्ष	-2707
▁मामले	-2708
▁build	-2709
▁x	-2710
▁अच्छी	-2711
▁198	-2712
jee	-2713
▁कोश	-2714
तें	-2715
▁free	-2716
alf	-2717
▁क्रिया	-2718
▁polit	-2719
▁फ़ोल्डर	-2720
ury	-2721
▁soci	-2722
▁सामाजिक	-2723
atic	-2724
▁benef	-2725
▁light	-2726
पुर	-2727
//	-2728
▁यू	-2729
▁tre	-2730
चान	-2731
▁निकल	-2732
▁pop	-2733
iron	-2734
▁दें	-2735
▁जाएगी	-2736
▁प्रणाली	-2737
▁व्यापार	-2738
ENT	-2739
▁स्थापित	-2740
eric	-2741
हरी	-2742
▁invest	-2743
▁समाप्त	-2744
▁chang	-2745
▁आम	-2746
▁1.	-2747
▁due	-2748
▁towards	-2749
rah	-2750
▁अतिरिक	-2751
डियो	-2752
itions	-2753
ged	-2754
▁dra	-2755
▁Im	-2756
▁कुल	-2757
ृत्य	-2758
▁less	-2759
▁इं	-2760
▁पं	-2761
▁चयन	-2762
▁result	-2763
▁war	-2764
▁available	-2765
▁sche	-2766
land	-2767
▁सभा	-2768
▁निम्न	-2769
cri	-2770
▁आवश्यक	-2771
▁kind	-2772
na	-2773
र्द	-2774
पाल	-2775
▁दक्ष	-2776
▁Who	-2777
▁पहुंच	-2778
▁दिल	-2779
▁फर	-2780
▁dep	-2781
स्तुत	-2782
://	-2783
▁offic	-2784
मंत्री	-2785
▁भु	-2786
▁One	-2787
▁कवि	-2788
3⁄4	-2789
¤3⁄4	-2790
▁jud	-2791
enger	-2792
▁घो	-2793
▁quest	-2794
▁आध	-2795
द्द	-2796
▁आग	-2797
ief	-2798
▁hist	-2799
alk	-2800
▁सिद्ध	-2801
irc	-2802
▁13	-2803
ailed	-2804
▁वर्ग	-2805
ording	-2806
▁rev	-2807
▁यक़	-2808
inc	-2809
▁trad	-2810
▁जीव	-2811
मार	-2812
▁कहीं	-2813
▁Central	-2814
▁वेब	-2815
▁health	-2816
ason	-2817
दर्शन	-2818
▁जाओ	-2819
▁पूछ	-2820
्‍	-2821
.0	-2822
तनी	-2823
ird	-2824
▁language	-2825
ंव	-2826
ज़र	-2827
ng	-2828
▁सुरक्षा	-2829
▁टे	-2830
▁heavens	-2831
▁Del	-2832
▁issu	-2833
▁उसको	-2834
▁जानते	-2835
▁बराबर	-2836
जि	-2837
▁Ass	-2838
न्म	-2839
चन	-2840
लत	-2841
▁विवरण	-2842
राम	-2843
तियों	-2844
iversity	-2845
▁प्रती	-2846
चि	-2847
दम	-2848
स्तान	-2849
▁कोर्इ	-2850
ering	-2851
▁understand	-2852
▁prote	-2853
हरण	-2854
ान्त	-2855
▁brought	-2856
ala	-2857
डा	-2858
IN	-2859
▁''	-2860
जों	-2861
▁mo	-2862
▁value	-2863
▁चे	-2864
ंदर	-2865
▁मर	-2866
▁जिससे	-2867
कु	-2868
▁exist	-2869
▁स्थित	-2870
▁रहने	-2871
▁टी	-2872
र्स	-2873
पना	-2874
िश्त	-2875
▁national	-2876
uss	-2877
ंधान	-2878
▁14	-2879
एम	-2880
ross	-2881
nic	-2882
▁निर्ण	-2883
▁#44	-2884
▁#44;	-2885
धित	-2886
ances	-2887
▁command	-2888
▁str	-2889
▁अतिरिक्त	-2890
▁डी	-2891
str	-2892
ukher	-2893
▁ri	-2894
▁She	-2895
बल	-2896
▁पे	-2897
▁punishment	-2898
▁उदा	-2899
▁194	-2900
▁cause	-2901
▁family	-2902
▁Dep	-2903
▁महिला	-2904
▁197	-2905
ajor	-2906
rie	-2907
ukherjee	-2908
tal	-2909
▁Mu	-2910
फा	-2911
▁रहते	-2912
▁class	-2913
urity	-2914
▁देशों	-2915
▁poet	-2916
▁नया	-2917
▁क़ौम	-2918
बू	-2919
▁अल	-2920
▁विन	-2921
▁tas	-2922
▁send	-2923
iful	-2924
▁आकार	-2925
ीकरण	-2926
जर	-2927
▁नए	-2928
▁change	-2929
भर	-2930
▁चुका	-2931
▁bre	-2932
▁सन्	-2933
▁चुके	-2934
ternational	-2935
▁सच्च	-2936
▁const	-2937
ructure	-2938
▁अंतर्गत	-2939
▁तुमने	-2940
मि	-2941
ेंट	-2942
▁lim	-2943
▁food	-2944
कृतिक	-2945
▁कहने	-2946
▁Sub	-2947
▁लेने	-2948
ification	-2949
▁death	-2950
ately	-2951
▁kg	-2952
▁कर्	-2953
▁संवि	-2954
cut	-2955
opt	-2956
डे	-2957
▁run	-2958
पन्न	-2959
▁पड़े	-2960
▁राम	-2961
▁met	-2962
वाई	-2963
क्ता	-2964
ceed	-2965
ource	-2966
▁सही	-2967
▁हिंद	-2968
▁something	-2969
▁उत्पादन	-2970
ising	-2971
¥	-2972
▁संस	-2973
▁associ	-2974
ष्ट्रीय	-2975
▁Islam	-2976
▁लाए	-2977
▁रखने	-2978
ेशा	-2979
▁Bhavan	-2980
aim	-2981
▁जाये	-2982
▁plan	-2983
▁अनुसंधान	-2984
▁मंदिर	-2985
isions	-2986
▁आकाश	-2987
▁market	-2988
▁special	-2989
प्	-2990
hing	-2991
▁house	-2992
वेदन	-2993
▁non	-2994
▁ज़ि	-2995
▁एन	-2996
anab	-2997
▁service	-2998
▁ru	-2999
▁Add	-3000
ocu	-3001
▁तु	-3002
▁यातना	-3003
▁अप्र	-3004
▁खेल	-3005
▁त्रुट	-3006
ready	-3007
used	-3008
rial	-3009
rict	-3010
▁इन्	-3011
ट्टी	-3012
तार	-3013
▁नही	-3014
बो	-3015
सित	-3016
िष्ट	-3017
ग्री	-3018
रोध	-3019
तमान	-3020
पूर्व	-3021
▁17	-3022
▁उठ	-3023
▁बुरा	-3024
section	-3025
▁vill	-3026
ंधी	-3027
▁net	-3028
▁।	-3029
▁उद्देश्य	-3030
ष्ण	-3031
▁self	-3032
▁Rs	-3033
uty	-3034
▁program	-3035
▁महान	-3036
▁राशि	-3037
▁supp	-3038
▁व्यवस्था	-3039
▁यात्रा	-3040
ential	-3041
▁mer	-3042
▁ey	-3043
ricult	-3044
▁सां	-3045
▁माँ	-3046
▁Rasht	-3047
क्षम	-3048
▁hard	-3049
▁क्षमता	-3050
ME	-3051
▁Can	-3052
▁वालों	-3053
irit	-3054
▁निवेश	-3055
▁बहु	-3056
▁30	-3057
ivid	-3058
▁far	-3059
nect	-3060
▁subject	-3061
▁father	-3062
▁भू	-3063
▁object	-3064
▁प्रदेश	-3065
▁पृष्ठ	-3066
▁पत्	-3067
▁field	-3068
▁निस्	-3069
▁cal	-3070
het	-3071
orn	-3072
▁Dis	-3073
▁matter	-3074
ait	-3075
▁reve	-3076
हित्य	-3077
▁area	-3078
agement	-3079
▁comput	-3080
▁Sec	-3081
iqu	-3082
▁provided	-3083
itte	-3084
▁बचा	-3085
▁विधि	-3086
▁बाल	-3087
▁data	-3088
▁product	-3089
ठला	-3090
स्थ्य	-3091
▁near	-3092
▁परी	-3093
▁date	-3094
urther	-3095
▁उपधारा	-3096
▁जिन्हें	-3097
com	-3098
ured	-3099
कर्ता	-3100
▁सदस्य	-3101
▁Americ	-3102
▁एस	-3103
▁ple	-3104
▁love	-3105
▁निष्	-3106
▁परन्तु	-3107
▁op	-3108
▁अधिकारी	-3109
▁संपर्क	-3110
han	-3111
▁प्रारंभ	-3112
▁Ag	-3113
rapati	-3114
▁charact	-3115
▁already	-3116
io	-3117
▁रि	-3118
ference	-3119
▁sw	-3120
▁मनुष	-3121
▁eng	-3122
▁true	-3123
ूरत	-3124
▁समु	-3125
reen	-3126
▁regard	-3127
▁whole	-3128
ali	-3129
▁राह	-3130
reng	-3131
▁वर्तमान	-3132
ability	-3133
▁मूसा	-3134
▁वर्षों	-3135
gether	-3136
▁together	-3137
क्म	-3138
▁hig	-3139
▁night	-3140
ोस	-3141
▁members	-3142
▁बनाए	-3143
▁Sing	-3144
▁second	-3145
ोर्ट	-3146
▁ann	-3147
ma	-3148
त्मा	-3149
▁विशिष्ट	-3150
▁rese	-3151
oss	-3152
षित	-3153
▁युद्ध	-3154
▁few	-3155
श्र	-3156
raph	-3157
▁वाप	-3158
▁इतिहास	-3159
▁सिर्फ	-3160
▁cr	-3161
oney	-3162
▁fund	-3163
▁Gand	-3164
ज्	-3165
▁gave	-3166
▁common	-3167
▁परिवार	-3168
▁capital	-3169
cing	-3170
ख़िर	-3171
▁स्वतंत्र	-3172
▁Us	-3173
aring	-3174
▁worship	-3175
▁Cont	-3176
▁perform	-3177
▁services	-3178
▁थीं	-3179
▁सत्य	-3180
▁आरंभ	-3181
▁signs	-3182
▁countries	-3183
IT	-3184
▁Indeed	-3185
यान	-3186
▁निर्देश	-3187
▁Your	-3188
▁अर	-3189
▁कौन	-3190
दर	-3191
▁following	-3192
iding	-3193
▁del	-3194
▁Rashtrapati	-3195
▁care	-3196
धारण	-3197
▁Spe	-3198
▁प्रस्तुत	-3199
▁वर्ण	-3200
▁Delhi	-3201
ancial	-3202
▁दूसरी	-3203
▁त्रुटि	-3204
▁तुमको	-3205
▁न्याय	-3206
▁expl	-3207
ently	-3208
¤	-3209
ope	-3210
OR	-3211
¤°	-3212
▁न्यायालय	-3213
▁सका	-3214
▁Brit	-3215
▁above	-3216
▁liter	-3217
▁tax	-3218
▁झुठला	-3219
▁god	-3220
▁वहाँ	-3221
▁साहित्य	-3222
ांत	-3223
▁hold	-3224
थम	-3225
▁२	-3226
▁Pre	-3227
eness	-3228
▁Those	-3229
मिल	-3230
ners	-3231
▁पेश	-3232
▁pray	-3233
come	-3234
▁little	-3235
जो	-3236
▁pract	-3237
▁provide	-3238
गल	-3239
ogn	-3240
▁हमारा	-3241
▁दृष्टि	-3242
गु	-3243
भू	-3244
▁Rep	-3245
▁dou	-3246
▁प्रशिक्ष	-3247
▁based	-3248
liament	-3249
▁streng	-3250
▁स्वास्थ्य	-3251
itor	-3252
▁areas	-3253
be	-3254
रिका	-3255
▁दिल्ली	-3256
ession	-3257
▁himself	-3258
▁चा	-3259
▁major	-3260
▁particular	-3261
eous	-3262
ians	-3263
▁nation	-3264
▁path	-3265
सलमान	-3266
▁age	-3267
▁हुक्म	-3268
▁action	-3269
▁respons	-3270
जित	-3271
itness	-3272
▁आन	-3273
▁kgm	-3274
ems	-3275
▁शहर	-3276
▁economic	-3277
तक	-3278
▁cost	-3279
▁शरीर	-3280
जरा	-3281
val	-3282
ying	-3283
▁अपे	-3284
▁asse	-3285
▁शे	-3286
▁प्रधानमंत्री	-3287
▁test	-3288
००	-3289
ानीय	-3290
▁देगा	-3291
aining	-3292
ilities	-3293
AL	-3294
iver	-3295
▁थो	-3296
▁लाख	-3297
▁देखते	-3298
HE	-3299
▁type	-3300
▁making	-3301
▁plac	-3302
▁thought	-3303
▁रात	-3304
▁words	-3305
artment	-3306
isation	-3307
▁वास्ते	-3308
htm	-3309
▁belong	-3310
▁दक्षि	-3311
▁बच्चों	-3312
ividual	-3313
▁जिनके	-3314
▁consider	-3315
▁policy	-3316
कम	-3317
▁बेहतर	-3318
▁चित्र	-3319
▁शिक	-3320
▁विश्वविद्यालय	-3321
▁eas	-3322
▁तौर	-3323
ger	-3324
▁hearts	-3325
ोजित	-3326
▁beg	-3327
adesh	-3328
▁init	-3329
▁श्रेणी	-3330
▁आसमान	-3331
खित	-3332
नाथ	-3333
झा	-3334
▁निर	-3335
▁कैसे	-3336
लू	-3337
▁Acc	-3338
▁until	-3339
▁अंग्रे	-3340
ंतिम	-3341
ilit	-3342
▁Gener	-3343
▁having	-3344
रि	-3345
oses	-3346
ling	-3347
निश्च	-3348
▁prob	-3349
▁able	-3350
▁el	-3351
बत	-3352
▁घटना	-3353
viron	-3354
▁Commission	-3355
ges	-3356
▁report	-3357
▁अमेरिका	-3358
▁still	-3359
aled	-3360
▁current	-3361
क्षर	-3362
▁ve	-3363
istry	-3364
्रिय	-3365
▁सम्बन्	-3366
▁एक्स	-3367
▁संसा	-3368
तने	-3369
20	-3370
वाब	-3371
▁भि	-3372
lection	-3373
▁शीर्ष	-3374
▁though	-3375
▁pain	-3376
ैस	-3377
▁हमेशा	-3378
ुओं	-3379
▁निर्णय	-3380
▁seen	-3381
▁ever	-3382
▁विकसित	-3383
chie	-3384
▁around	-3385
ards	-3386
▁sol	-3387
▁जिन्होंने	-3388
oura	-3389
af	-3390
▁सेट	-3391
▁sector	-3392
▁स्थानीय	-3393
लाई	-3394
▁took	-3395
▁society	-3396
idence	-3397
▁sing	-3398
तो	-3399
ories	-3400
▁तहत	-3401
▁उदाहरण	-3402
▁instru	-3403
संदेह	-3404
▁necess	-3405
▁भूमि	-3406
ara	-3407
▁Cour	-3408
▁नौ	-3409
▁Cl	-3410
▁काल	-3411
play	-3412
ड़ों	-3413
▁aut	-3414
▁प्रस्ता	-3415
▁occas	-3416
▁Em	-3417
▁प्रस	-3418
▁States	-3419
▁रू	-3420
ज्ञा	-3421
▁rul	-3422
▁along	-3423
▁farm	-3424
▁2.	-3425
▁बंद	-3426
vironment	-3427
akh	-3428
▁whose	-3429
els	-3430
▁मिले	-3431
▁हाला	-3432
शिया	-3433
ribut	-3434
ises	-3435
▁सर्	-3436
icult	-3437
▁individual	-3438
ww	-3439
▁always	-3440
uct	-3441
▁दया	-3442
ammad	-3443
▁mus	-3444
रीब	-3445
▁अला	-3446
▁हक़	-3447
▁orig	-3448
▁निर्धारण	-3449
▁effort	-3450
▁विदेशी	-3451
शल	-3452
hat	-3453
▁post	-3454
▁express	-3455
▁अनि	-3456
▁spirit	-3457
▁भेजा	-3458
▁repres	-3459
▁बंग	-3460
मन	-3461
▁mult	-3462
hy	-3463
uro	-3464
गति	-3465
▁प्रेम	-3466
▁seek	-3467
ज़िल	-3468
▁दस्ता	-3469
▁believers	-3470
▁अंतिम	-3471
cil	-3472
▁local	-3473
ष्य	-3474
▁बल	-3475
▁मौजूद	-3476
▁meas	-3477
▁vers	-3478
▁nothing	-3479
▁enter	-3480
▁enc	-3481
▁PRES	-3482
▁therefore	-3483
▁चिक	-3484
्याल	-3485
▁अनुभव	-3486
oad	-3487
र्जा	-3488
साय	-3489
IS	-3490
▁ut	-3491
br	-3492
▁उन्	-3493
ंगा	-3494
▁24	-3495
▁fav	-3496
▁पक	-3497
veral	-3498
▁whether	-3499
▁परंतु	-3500
▁छोटे	-3501
▁सार्व	-3502
▁प्रस्ताव	-3503
▁रचना	-3504
▁thing	-3505
▁including	-3506
▁निश्चित	-3507
वासी	-3508
ails	-3509
▁प्रवेश	-3510
▁संच	-3511
च्छा	-3512
▁लगता	-3513
▁clause	-3514
▁folder	-3515
▁भूमिका	-3516
▁deeds	-3517
▁मांग	-3518
▁guid	-3519
▁political	-3520
▁mill	-3521
▁creat	-3522
bo	-3523
▁दिशा	-3524
फिर	-3525
arent	-3526
▁thee	-3527
▁प्राधिक	-3528
▁create	-3529
दू	-3530
▁@	-3531
▁(2)	-3532
▁जहाँ	-3533
▁achie	-3534
राही	-3535
▁किये	-3536
▁Bank	-3537
▁Beng	-3538
▁With	-3539
▁school	-3540
▁witness	-3541
सू	-3542
▁गांधी	-3543
ustom	-3544
▁इस्ला	-3545
▁तत्व	-3546
▁लं	-3547
▁Rem	-3548
ोक्ता	-3549
ोगे	-3550
¥	-3551
▁Show	-3552
▁further	-3553
▁religion	-3554
▁point	-3555
▁बोल	-3556
▁रिप	-3557
▁yet	-3558
ames	-3559
▁अफ	-3560
▁mean	-3561
ील	-3562
▁Reg	-3563
▁पहचान	-3564
▁रहता	-3565
▁young	-3566
ched	-3567
▁port	-3568
▁five	-3569
▁निस्संदेह	-3570
reme	-3571
▁भाई	-3572
▁सक्रिय	-3573
▁अनुमति	-3574
▁वाद	-3575
umb	-3576
्रेस	-3577
यां	-3578
▁पाया	-3579
▁इंड	-3580
▁छवि	-3581
▁संयुक्त	-3582
▁जन्म	-3583
▁Gandhi	-3584
ैंड	-3585
दारों	-3586
ेंस	-3587
▁नव	-3588
▁दुर्	-3589
▁जिसकी	-3590
▁Col	-3591
ream	-3592
▁received	-3593
यात	-3594
eration	-3595
bt	-3596
▁growth	-3597
hammad	-3598
▁इस्त	-3599
▁later	-3600
▁आधारित	-3601
▁घा	-3602
हे	-3603
▁Please	-3604
▁X	-3605
▁विस्तार	-3606
▁माना	-3607
▁जह	-3608
ication	-3609
pportun	-3610
The	-3611
▁Prov	-3612
ier	-3613
▁live	-3614
▁वार	-3615
▁complete	-3616
ats	-3617
▁नागर	-3618
lling	-3619
▁राजनी	-3620
▁पहुँच	-3621
▁Not	-3622
▁दस्तावे	-3623
pose	-3624
▁side	-3625
▁total	-3626
cribed	-3627
▁कृप	-3628
▁जल्	-3629
▁control	-3630
▁नियंत्रण	-3631
▁विकल्प	-3632
▁लक्ष्य	-3633
after	-3634
▁es	-3635
▁संबंधी	-3636
▁equal	-3637
▁निर्दिष्ट	-3638
▁British	-3639
लिखित	-3640
▁यक़ीन	-3641
▁nature	-3642
▁Sy	-3643
ours	-3644
atever	-3645
िकों	-3646
स्म	-3647
एल	-3648
▁became	-3649
▁वित्तीय	-3650
दय	-3651
▁संक	-3652
ann	-3653
▁home	-3654
▁docu	-3655
▁संभव	-3656
▁institut	-3657
erve	-3658
ta	-3659
ार्ड	-3660
rael	-3661
ources	-3662
▁हिस्सा	-3663
opy	-3664
▁बाजार	-3665
▁held	-3666
▁Ph	-3667
▁peace	-3668
▁short	-3669
itional	-3670
▁cred	-3671
▁inde	-3672
▁मित्र	-3673
▁स्थापना	-3674
ead	-3675
▁गर्	-3676
▁since	-3677
वरी	-3678
▁z	-3679
▁hands	-3680
ude	-3681
ittee	-3682
▁impro	-3683
▁मंत्रालय	-3684
for	-3685
▁कमी	-3686
ached	-3687
ribution	-3688
illed	-3689
वीं	-3690
ुनिक	-3691
ministr	-3692
▁जांच	-3693
मू	-3694
▁circ	-3695
जह	-3696
▁diff	-3697
वस्था	-3698
▁50	-3699
▁leave	-3700
्राम	-3701
▁key	-3702
▁opportun	-3703
▁cro	-3704
incip	-3705
▁dr	-3706
outh	-3707
न्ट	-3708
▁(3	-3709
▁English	-3710
▁अग्र	-3711
▁’	-3712
ृत्यु	-3713
▁सहायक	-3714
▁मनुष्य	-3715
▁next	-3716
▁तकनी	-3717
▁Messenger	-3718
ंतर	-3719
atch	-3720
्टी	-3721
gu	-3722
▁mor	-3723
▁सोच	-3724
▁पहुँचा	-3725
▁After	-3726
▁Most	-3727
▁text	-3728
ences	-3729
▁पुकार	-3730
IDENT	-3731
▁record	-3732
▁function	-3733
▁THE	-3734
▁संविधान	-3735
▁बच	-3736
▁डाक	-3737
▁question	-3738
चल	-3739
▁strong	-3740
▁100	-3741
▁probably	-3742
▁गुम	-3743
साइट	-3744
dom	-3745
▁ill	-3746
▁प्रथम	-3747
▁सिंह	-3748
▁required	-3749
.1	-3750
▁translation	-3751
▁प्रगति	-3752
▁i	-3753
▁झू	-3754
▁mater	-3755
सान	-3756
▁Hindi	-3757
▁वृद्धि	-3758
▁knows	-3759
ches	-3760
ंगे	-3761
म्मे	-3762
▁फल	-3763
▁लेते	-3764
▁PRESIDENT	-3765
▁Prime	-3766
▁तंत्र	-3767
▁अधि	-3768
▁Israel	-3769
▁प्रबंधन	-3770
▁previous	-3771
▁son	-3772
▁नाज़िल	-3773
▁forth	-3774
ivil	-3775
गि	-3776
ंसा	-3777
▁Develop	-3778
▁समिति	-3779
▁feel	-3780
bar	-3781
▁दिनों	-3782
घा	-3783
▁पहली	-3784
▁केन्द्र	-3785
▁selected	-3786
▁Singh	-3787
ergy	-3788
गतान	-3789
▁अलावा	-3790
▁brother	-3791
▁उपकरण	-3792
plement	-3793
▁reason	-3794
change	-3795
ibility	-3796
▁share	-3797
निश्चित	-3798
▁position	-3799
▁ट्र	-3800
▁पिछले	-3801
omes	-3802
यामत	-3803
▁मृत्यु	-3804
▁मॉ	-3805
▁reward	-3806
र्श	-3807
▁mis	-3808
▁Name	-3809
▁money	-3810
ानि	-3811
यु	-3812
▁"%	-3813
स्थिति	-3814
▁शो	-3815
▁possible	-3816
▁occasion	-3817
▁सहित	-3818
▁लें	-3819
▁जाय	-3820
We	-3821
▁193	-3822
▁रखता	-3823
ior	-3824
just	-3825
▁industry	-3826
▁flow	-3827
▁कृपया	-3828
ION	-3829
▁either	-3830
stitute	-3831
र्जी	-3832
optional	-3833
▁ur	-3834
uation	-3835
▁Pe	-3836
▁several	-3837
▁उत्पन्न	-3838
▁foreign	-3839
▁गुनाह	-3840
udd	-3841
▁relations	-3842
▁सेना	-3843
▁समर्थन	-3844
पट	-3845
▁dom	-3846
▁भीतर	-3847
men	-3848
▁विंडो	-3849
▁खाता	-3850
▁application	-3851
ँच	-3852
▁न्यू	-3853
▁connect	-3854
ouncil	-3855
earch	-3856
▁पुस्तक	-3857
▁priv	-3858
IC	-3859
न्यास	-3860
▁मही	-3861
▁पूंजी	-3862
पण	-3863
द्रा	-3864
▁अध्ययन	-3865
▁error	-3866
▁पुनः	-3867
▁हटा	-3868
cious	-3869
▁activities	-3870
▁प्रश्न	-3871
▁मंत्री	-3872
▁research	-3873
▁dise	-3874
▁certainly	-3875
cent	-3876
शाली	-3877
▁concern	-3878
▁एम	-3879
▁देव	-3880
▁खे	-3881
▁Hindu	-3882
▁Ministry	-3883
▁access	-3884
ज़े	-3885
▁*	-3886
▁authority	-3887
▁mother	-3888
IA	-3889
ring	-3890
ault	-3891
▁Offic	-3892
▁सुनिश्चित	-3893
▁मिटा	-3894
▁character	-3895
hold	-3896
▁निशान	-3897
most	-3898
ively	-3899
aster	-3900
▁सर्वर	-3901
▁संभाव	-3902
▁चिकित	-3903
▁प्रशिक्षण	-3904
▁Cong	-3905
▁Sw	-3906
िको	-3907
▁Parliament	-3908
▁face	-3909
▁आत्म	-3910
otion	-3911
▁भुगतान	-3912
▁contact	-3913
▁sat	-3914
▁commit	-3915
▁21	-3916
्रोत	-3917
ony	-3918
ौती	-3919
▁Some	-3920
▁योग्य	-3921
icle	-3922
▁University	-3923
▁फ़र	-3924
ince	-3925
▁example	-3926
▁ति	-3927
स्ती	-3928
▁progress	-3929
▁राजा	-3930
mission	-3931
▁(19	-3932
▁तुल	-3933
▁क्षमा	-3934
▁stat	-3935
ापन	-3936
तुम	-3937
▁itself	-3938
▁recogn	-3939
शु	-3940
▁Comp	-3941
▁अनुप	-3942
▁sum	-3943
urely	-3944
uf	-3945
▁technology	-3946
ton	-3947
cell	-3948
▁fall	-3949
बान	-3950
▁ऊर्जा	-3951
see	-3952
▁वास्तविक	-3953
▁मात्रा	-3954
▁दक्षिण	-3955
्ष्	-3956
▁सफलता	-3957
▁plant	-3958
▁financial	-3959
▁चाल	-3960
▁समुदा	-3961
▁धार	-3962
▁भावना	-3963
▁Bo	-3964
▁लिखा	-3965
▁संग्रह	-3966
▁पौ	-3967
idd	-3968
जनिक	-3969
▁ख़ु	-3970
स्कार	-3971
▁आदमी	-3972
▁fut	-3973
▁obs	-3974
▁हैः	-3975
▁भिन्न	-3976
▁link	-3977
lu	-3978
▁कांग	-3979
पु	-3980
क्या	-3981
▁went	-3982
गाह	-3983
▁उपबंध	-3984
vi	-3985
▁सत्ता	-3986
▁सरकारी	-3987
▁आधुनिक	-3988
▁anything	-3989
▁lab	-3990
rodu	-3991
▁आख़िर	-3992
▁visit	-3993
▁मुसलमान	-3994
ेमाल	-3995
▁don	-3996
▁air	-3997
▁inn	-3998
▁opp	-3999
▁हित	-4000
ुआ	-4001
▁anim	-4002
▁जाएँगे	-4003
म्ब	-4004
▁बिल	-4005
aries	-4006
augh	-4007
वाले	-4008
▁उनपर	-4009
▁इस्तेमाल	-4010
ण्श	-4011
ण्श्छ	-4012
▁पुरा	-4013
ण्श्छ्ष्	-4014
▁production	-4015
ully	-4016
ऊण्श्छ्ष्	-4017
त्सा	-4018
▁rate	-4019
▁फाइल	-4020
▁using	-4021
▁दाय	-4022
▁वेबसाइट	-4023
▁assess	-4024
▁elect	-4025
▁trust	-4026
ियान	-4027
▁वापस	-4028
▁राज्यों	-4029
▁बच्चे	-4030
▁सिर	-4031
▁मुक़	-4032
▁रिपोर्ट	-4033
▁difficult	-4034
गो	-4035
mber	-4036
▁provisions	-4037
ैल	-4038
▁history	-4039
ँह	-4040
▁mag	-4041
▁lib	-4042
▁grant	-4043
▁quality	-4044
▁चुनें	-4045
arat	-4046
▁खुल	-4047
▁जैसी	-4048
▁प्रे	-4049
पे	-4050
स्ति	-4051
une	-4052
वस	-4053
▁युवा	-4054
▁Af	-4055
विष्य	-4056
▁Here	-4057
▁deal	-4058
▁खो	-4059
▁line	-4060
▁property	-4061
▁agricult	-4062
isl	-4063
▁represent	-4064
▁खाते	-4065
▁Des	-4066
bsite	-4067
▁सम्मान	-4068
▁खुद	-4069
▁established	-4070
ened	-4071
▁nat	-4072
▁App	-4073
▁Ver	-4074
▁Pradesh	-4075
imum	-4076
ograph	-4077
▁works	-4078
▁प्रदर्श	-4079
▁General	-4080
▁सार्वजनिक	-4081
▁कट	-4082
▁क्ल	-4083
▁working	-4084
▁कप	-4085
▁सुना	-4086
by	-4087
▁purpose	-4088
▁Court	-4089
▁ident	-4090
aps	-4091
▁उम्	-4092
▁Direct	-4093
▁वन	-4094
द्रीय	-4095
▁वो	-4096
▁fire	-4097
ets	-4098
▁मामलों	-4099
खी	-4100
▁आक	-4101
▁Fin	-4102
▁enj	-4103
▁harm	-4104
ape	-4105
भूत	-4106
▁hy	-4107
▁पूरे	-4108
obal	-4109
▁हस्ता	-4110
▁material	-4111
▁top	-4112
2.	-4113
▁दृश्य	-4114
▁therein	-4115
▁उद्य	-4116
▁पुरुष	-4117
ension	-4118
▁scheme	-4119
▁कमा	-4120
▁Dr	-4121
▁26	-4122
▁Serv	-4123
▁suff	-4124
▁रहो	-4125
urope	-4126
▁प्रकृति	-4127
ंथ	-4128
▁Co	-4129
▁save	-4130
▁अह	-4131
▁ded	-4132
ills	-4133
▁साफ	-4134
acity	-4135
▁image	-4136
▁मश	-4137
▁अत्यन्त	-4138
▁भविष्य	-4139
ilar	-4140
▁soul	-4141
aun	-4142
▁जे	-4143
▁big	-4144
▁necessary	-4145
निक	-4146
▁उल्लेख	-4147
▁started	-4148
▁ens	-4149
राह	-4150
ामीण	-4151
▁course	-4152
▁यूर	-4153
▁behind	-4154
▁निकट	-4155
▁मालूम	-4156
▁meeting	-4157
▁कम्प	-4158
rab	-4159
ilt	-4160
▁संपाद	-4161
▁security	-4162
▁चले	-4163
▁entire	-4164
▁IND	-4165
▁खरी	-4166
▁जहन्न	-4167
▁mail	-4168
osp	-4169
▁बातें	-4170
mend	-4171
▁संगठन	-4172
▁शासन	-4173
▁शुभ	-4174
▁dri	-4175
▁संशो	-4176
▁vi	-4177
▁आत	-4178
▁कोशिश	-4179
▁Open	-4180
्यूटर	-4181
▁hath	-4182
▁Could	-4183
▁mercy	-4184
ख्स	-4185
▁यक़ीनन	-4186
▁files	-4187
▁network	-4188
▁Development	-4189
osed	-4190
irth	-4191
ायद	-4192
itiz	-4193
▁गुर	-4194
ग़म्बर	-4195
▁जरूरत	-4196
▁By	-4197
▁hon	-4198
▁बातों	-4199
ारों	-4200
▁000	-4201
▁referred	-4202
▁future	-4203
नाव	-4204
▁दिखाएँ	-4205
र्चा	-4206
त्त्व	-4207
▁खिला	-4208
▁demand	-4209
▁लाल	-4210
▁High	-4211
▁related	-4212
▁सत	-4213
▁ten	-4214
▁bar	-4215
ethod	-4216
▁close	-4217
▁continu	-4218
▁Congress	-4219
तृ	-4220
फ्	-4221
▁greater	-4222
▁डॉ	-4223
▁redu	-4224
▁सदस्यों	-4225
ंडल	-4226
▁संके	-4227
istan	-4228
▁वैज्ञान	-4229
▁court	-4230
बूत	-4231
वाही	-4232
▁Know	-4233
erciful	-4234
▁asked	-4235
श्वर	-4236
word	-4237
▁fight	-4238
चर	-4239
▁पस	-4240
mitted	-4241
▁करोड़	-4242
▁implement	-4243
ारोह	-4244
▁अन्	-4245
▁news	-4246
▁शख्स	-4247
िब	-4248
▁ग्रामीण	-4249
airs	-4250
▁ढा	-4251
▁संसद	-4252
esides	-4253
▁विनिर्	-4254
pur	-4255
▁got	-4256
▁जिनमें	-4257
▁Thus	-4258
एक	-4259
ipp	-4260
▁ऑफ	-4261
▁सक्षम	-4262
लाइन	-4263
unt	-4264
▁higher	-4265
▁institutions	-4266
▁नदी	-4267
▁agree	-4268
मय	-4269
▁community	-4270
▁Now	-4271
▁Mar	-4272
engers	-4273
एफ	-4274
▁decl	-4275
urs	-4276
चारी	-4277
▁छिप	-4278
▁कानून	-4279
▁six	-4280
▁House	-4281
▁सामग्री	-4282
ung	-4283
▁अपेक्षा	-4284
▁whatever	-4285
म्भ	-4286
▁उचित	-4287
▁लॉ	-4288
▁Ev	-4289
▁written	-4290
▁पर्य	-4291
▁समझा	-4292
aged	-4293
action	-4294
▁mount	-4295
▁treat	-4296
▁RRB	-4297
ointed	-4298
▁देखने	-4299
ल्ल	-4300
▁गी	-4301
▁city	-4302
▁नेट	-4303
▁पहा	-4304
▁revealed	-4305
bit	-4306
ड़क	-4307
▁31	-4308
▁बने	-4309
▁प्रशासन	-4310
▁तारी	-4311
वर्ष	-4312
▁once	-4313
▁students	-4314
▁Europe	-4315
▁warn	-4316
▁23	-4317
दर्भ	-4318
▁कहो	-4319
▁guidance	-4320
▁initi	-4321
▁specified	-4322
rast	-4323
▁अपरा	-4324
▁comes	-4325
olk	-4326
side	-4327
▁List	-4328
▁living	-4329
▁Su	-4330
poses	-4331
▁संरचना	-4332
--	-4333
▁leaders	-4334
▁ईसा	-4335
र्ग	-4336
▁stri	-4337
▁forward	-4338
▁समारोह	-4339
गीत	-4340
▁रिक	-4341
▁इतना	-4342
▁जित	-4343
काम	-4344
▁जवाब	-4345
▁प्रकट	-4346
▁केंद्रीय	-4347
▁paid	-4348
▁बाज़	-4349
▁step	-4350
▁sal	-4351
▁दिखाई	-4352
▁months	-4353
▁Cal	-4354
fully	-4355
▁पश्चात	-4356
▁repl	-4357
▁व्यापक	-4358
▁website	-4359
▁अध्यक्ष	-4360
▁modern	-4361
▁lay	-4362
▁स्कूल	-4363
Name	-4364
▁ans	-4365
▁imm	-4366
▁पुरस्कार	-4367
uly	-4368
▁देती	-4369
▁री	-4370
▁ones	-4371
▁संदर्भ	-4372
▁प्रतिनि	-4373
▁काफ़	-4374
प्रे	-4375
▁रक्षा	-4376
मह	-4377
ront	-4378
▁बाप	-4379
ones	-4380
▁हास	-4381
टल	-4382
▁मुँह	-4383
वालों	-4384
▁rele	-4385
थमिक	-4386
▁तौ	-4387
▁टै	-4388
च्छेद	-4389
▁Union	-4390
ned	-4391
ीप	-4392
▁soon	-4393
▁दशा	-4394
▁रोज	-4395
▁प्रोत्सा	-4396
▁tell	-4397
▁गांव	-4398
▁बयान	-4399
▁Department	-4400
▁निर्यात	-4401
ृह	-4402
▁according	-4403
▁told	-4404
▁past	-4405
▁Nor	-4406
▁Pol	-4407
▁prep	-4408
▁goods	-4409
ruction	-4410
▁role	-4411
▁story	-4412
▁verily	-4413
▁believed	-4414
-#	-4415
ंगी	-4416
▁खाद	-4417
▁बुला	-4418
▁righteous	-4419
▁abs	-4420
atives	-4421
▁determ	-4422
▁आँ	-4423
▁इनमें	-4424
▁Er	-4425
टों	-4426
श्त	-4427
ek	-4428
▁Sat	-4429
▁Sp	-4430
पूर्वक	-4431
▁Committee	-4432
orrow	-4433
▁पड़ा	-4434
anch	-4435
▁गैर	-4436
▁वजह	-4437
itive	-4438
बह	-4439
ोग्राम	-4440
ina	-4441
▁pub	-4442
▁needs	-4443
der	-4444
▁सहेज	-4445
▁environment	-4446
▁cell	-4447
▁pot	-4448
hood	-4449
▁separ	-4450
▁कांग्रेस	-4451
सत	-4452
phet	-4453
▁eyes	-4454
▁योगदान	-4455
वधान	-4456
▁औद्योगिक	-4457
बि	-4458
ush	-4459
▁recom	-4460
▁बदले	-4461
▁अधिका	-4462
▁force	-4463
ैक	-4464
ison	-4465
▁मुद्रा	-4466
ji	-4467
▁thy	-4468
▁28	-4469
▁claim	-4470
▁Such	-4471
ideo	-4472
ires	-4473
reedom	-4474
▁दौ	-4475
▁office	-4476
lled	-4477
▁LRB	-4478
▁destro	-4479
▁king	-4480
▁शायद	-4481
▁wis	-4482
▁doing	-4483
▁मुझ	-4484
rish	-4485
▁प्राय	-4486
▁method	-4487
▁पथ	-4488
▁लौट	-4489
▁सर्वो	-4490
▁problem	-4491
ंकन	-4492
▁lot	-4493
▁27	-4494
▁till	-4495
ख़ुदा	-4496
ategory	-4497
चीन	-4498
lier	-4499
▁डिस्क	-4500
▁phys	-4501
▁Muslims	-4502
▁computer	-4503
,000	-4504
▁निजी	-4505
▁Constitution	-4506
▁ठहरा	-4507
▁आवेदन	-4508
कान	-4509
▁प्राथमिक	-4510
▁vari	-4511
idered	-4512
▁स्वतंत्रता	-4513
abha	-4514
medi	-4515
▁किंतु	-4516
▁आयु	-4517
▁पालन	-4518
▁चाहिये	-4519
ored	-4520
ल्पना	-4521
ont	-4522
▁शर्	-4523
वर्ती	-4524
▁invol	-4525
aves	-4526
▁रखना	-4527
▁केन्द	-4528
AP	-4529
ival	-4530
▁building	-4531
▁ter	-4532
▁रहेंगे	-4533
▁Qur	-4534
▁turned	-4535
0}	-4536
▁particip	-4537
cription	-4538
▁learn	-4539
ैतिक	-4540
▁century	-4541
istic	-4542
▁design	-4543
एन	-4544
acher	-4545
▁रखो	-4546
▁Bengal	-4547
▁extend	-4548
▁Mad	-4549
▁check	-4550
▁international	-4551
▁Govern	-4552
▁आतंक	-4553
▁आयतों	-4554
▁why	-4555
▁ध्व	-4556
▁प्रतिक	-4557
▁however	-4558
▁Mr	-4559
▁लेखा	-4560
राज	-4561
▁यूरोप	-4562
▁blood	-4563
ani	-4564
▁ange	-4565
▁party	-4566
itation	-4567
oid	-4568
▁उल	-4569
▁basis	-4570
▁रखे	-4571
्वी	-4572
irt	-4573
रुद्ध	-4574
▁Let	-4575
soever	-4576
▁parts	-4577
▁एशिया	-4578
▁चयनित	-4579
▁acqu	-4580
▁अर्था	-4581
▁appointed	-4582
▁super	-4583
!"	-4584
ita	-4585
▁रेल	-4586
▁संस्कृति	-4587
▁considered	-4588
▁ground	-4589
▁bea	-4590
▁Sche	-4591
▁Select	-4592
▁energy	-4593
▁vol	-4594
▁speak	-4595
▁भग	-4596
▁problems	-4597
दृ	-4598
▁administr	-4599
▁संगीत	-4600
▁purposes	-4601
रल	-4602
▁Part	-4603
▁आयात	-4604
र्न	-4605
घु	-4606
▁loss	-4607
▁इस्लाम	-4608
वत	-4609
▁प्रभा	-4610
▁sun	-4611
▁Council	-4612
▁movement	-4613
▁arch	-4614
▁ess	-4615
▁Lo	-4616
▁changes	-4617
▁किन	-4618
क्रमण	-4619
ama	-4620
▁Surely	-4621
▁लागत	-4622
▁अवश्य	-4623
▁व्यक्तियों	-4624
▁integr	-4625
▁Moses	-4626
▁सृ	-4627
▁तय	-4628
ript	-4629
▁terms	-4630
▁बोर्ड	-4631
ूदा	-4632
▁रकम	-4633
iation	-4634
acy	-4635
▁tree	-4636
▁उद्यम	-4637
ृति	-4638
▁Cor	-4639
▁manner	-4640
पक	-4641
▁आशा	-4642
खंड	-4643
वर्क	-4644
▁इब	-4645
▁Fire	-4646
▁custom	-4647
essee	-4648
ulf	-4649
▁राय	-4650
with	-4651
▁fru	-4652
▁dele	-4653
ological	-4654
लिस	-4655
▁host	-4656
▁crit	-4657
▁bra	-4658
न्व	-4659
▁Techn	-4660
ificate	-4661
▁fr	-4662
▁Verily	-4663
▁discuss	-4664
sue	-4665
ड़ाई	-4666
▁निदेश	-4667
▁single	-4668
▁22	-4669
▁आयोजित	-4670
लब	-4671
▁tor	-4672
▁firm	-4673
▁कार्यालय	-4674
hether	-4675
▁display	-4676
▁बज	-4677
▁begin	-4678
▁pen	-4679
▁persons	-4680
know	-4681
.)	-4682
▁squ	-4683
▁आवा	-4684
▁deep	-4685
▁cho	-4686
▁विधान	-4687
▁However	-4688
फर	-4689
सिक	-4690
▁शता	-4691
▁Information	-4692
▁दश	-4693
▁princip	-4694
ोलन	-4695
▁trade	-4696
▁server	-4697
▁तत्	-4698
▁Public	-4699
▁ढंग	-4700
▁पांच	-4701
amb	-4702
▁citiz	-4703
asing	-4704
▁प्रभावित	-4705
rary	-4706
reet	-4707
▁scient	-4708
▁सकें	-4709
लाम	-4710
▁often	-4711
▁डाला	-4712
▁assist	-4713
▁village	-4714
▁spread	-4715
▁mention	-4716
मेल	-4717
मो	-4718
ouses	-4719
▁press	-4720
▁establish	-4721
िकी	-4722
नेवाला	-4723
his	-4724
▁पर्याप्त	-4725
▁दल	-4726
▁बंगाल	-4727
▁प्रकाशित	-4728
▁poor	-4729
▁भौ	-4730
▁sense	-4731
सन	-4732
्सा	-4733
▁messages	-4734
▁अध्या	-4735
▁carry	-4736
▁destroy	-4737
▁religious	-4738
▁निधि	-4739
▁sac	-4740
▁books	-4741
4)	-4742
▁protect	-4743
▁remember	-4744
vey	-4745
html	-4746
▁task	-4747
▁undert	-4748
▁anc	-4749
▁दूसरा	-4750
▁स्रोत	-4751
▁अवस्था	-4752
▁मुक्त	-4753
▁passed	-4754
imate	-4755
aper	-4756
इयों	-4757
▁समुदाय	-4758
▁व्यवहार	-4759
▁निर्धारिती	-4760
▁असम	-4761
▁terror	-4762
▁assessee	-4763
▁शांति	-4764
▁(%	-4765
▁Ed	-4766
▁size	-4767
ousand	-4768
परी	-4769
▁Bl	-4770
सु	-4771
▁general	-4772
aught	-4773
मक	-4774
aint	-4775
▁makes	-4776
▁America	-4777
go	-4778
थि	-4779
ixed	-4780
▁झूठ	-4781
▁gives	-4782
▁issued	-4783
▁mach	-4784
▁ब्या	-4785
▁management	-4786
....	-4787
▁wealth	-4788
▁sound	-4789
▁पाल	-4790
नेवाले	-4791
▁देंगे	-4792
▁राजनीतिक	-4793
▁red	-4794
▁नर	-4795
▁Set	-4796
िल्म	-4797
▁विभा	-4798
▁allowed	-4799
▁benefit	-4800
▁1,	-4801
50	-4802
▁हल	-4803
rect	-4804
ड्ड	-4805
ुता	-4806
▁er	-4807
▁सलाह	-4808
▁हासिल	-4809
▁low	-4810
ke	-4811
माज़	-4812
द्यपि	-4813
▁चुकी	-4814
▁maint	-4815
▁Muhammad	-4816
atory	-4817
फ्त	-4818
स्‍	-4819
▁बनी	-4820
▁INDIA	-4821
▁civil	-4822
-201	-4823
▁thus	-4824
▁पर्यावरण	-4825
▁मुखर्जी	-4826
▁aud	-4827
क्का	-4828
▁none	-4829
▁प्रभ	-4830
va	-4831
कला	-4832
▁2000	-4833
राष्ट्रीय	-4834
नो	-4835
▁wish	-4836
▁चर	-4837
▁दिवस	-4838
▁reach	-4839
▁expect	-4840
▁depend	-4841
▁patient	-4842
▁3.	-4843
▁UR	-4844
▁viol	-4845
▁रक्त	-4846
▁freedom	-4847
anabm	-4848
pranabm	-4849
pranabmukherjee	-4850
ग्	-4851
City	-4852
▁अनुप्र	-4853
▁compan	-4854
▁निम्नलिखित	-4855
रीय	-4856
▁सुरक्षित	-4857
▁गि	-4858
नेट	-4859
स्पर	-4860
राज्य	-4861
▁असफल	-4862
ift	-4863
कत	-4864
iii	-4865
▁संय	-4866
▁everything	-4867
▁तीस	-4868
षद	-4869
use	-4870
▁केन्द्रीय	-4871
wer	-4872
sequ	-4873
▁natural	-4874
▁taking	-4875
▁increase	-4876
▁conduct	-4877
rec	-4878
▁लाने	-4879
▁aware	-4880
▁region	-4881
▁conditions	-4882
▁efforts	-4883
फ्ट	-4884
▁Chand	-4885
▁भारी	-4886
▁दृष्ट	-4887
▁संरक्षण	-4888
▁चर्चा	-4889
▁पदार्थ	-4890
ालिम	-4891
▁सेवाओं	-4892
कल	-4893
▁norm	-4894
डिया	-4895
uses	-4896
▁धी	-4897
orld	-4898
then	-4899
▁fel	-4900
ows	-4901
मीद	-4902
ियर	-4903
क्षक	-4904
▁ant	-4905
krit	-4906
▁fig	-4907
▁समझौ	-4908
▁source	-4909
hara	-4910
new	-4911
inary	-4912
घ्र	-4913
धाई	-4914
▁आपकी	-4915
▁यद्यपि	-4916
पो	-4917
्टर	-4918
ात्मक	-4919
▁तेल	-4920
▁सीधे	-4921
स्त्र	-4922
▁प्रमाणपत्र	-4923
▁matters	-4924
▁क्रम	-4925
▁really	-4926
▁बैठक	-4927
▁institution	-4928
idden	-4929
ech	-4930
▁li	-4931
ंद्र	-4932
ols	-4933
itude	-4934
▁neither	-4935
▁कहना	-4936
ैव	-4937
वत्ता	-4938
▁global	-4939
▁search	-4940
ew	-4941
app	-4942
्यो	-4943
▁इका	-4944
▁अनुक	-4945
▁million	-4946
ots	-4947
▁शब्दों	-4948
▁विशाल	-4949
nam	-4950
▁बाग़	-4951
ples	-4952
▁reject	-4953
▁fast	-4954
▁alone	-4955
▁आत्मा	-4956
दूस	-4957
over	-4958
▁डेटा	-4959
▁pet	-4960
▁partners	-4961
▁duty	-4962
▁साह	-4963
▁jour	-4964
▁आता	-4965
▁दिख	-4966
▁enjoy	-4967
believers	-4968
▁culture	-4969
▁फरमा	-4970
▁cover	-4971
iles	-4972
▁दू	-4973
▁192	-4974
▁condition	-4975
▁least	-4976
],	-4977
▁thousand	-4978
▁बधाई	-4979
rown	-4980
tax	-4981
itable	-4982
CT	-4983
भाल	-4984
▁talk	-4985
▁आयोग	-4986
ental	-4987
▁grie	-4988
िक्	-4989
▁नगर	-4990
-2	-4991
बाह	-4992
भीर	-4993
हाद	-4994
▁bur	-4995
▁पेट	-4996
▁सिद्धांत	-4997
ंबर	-4998
▁subs	-4999
▁तरीके	-5000
▁यथा	-5001
▁developed	-5002
हीन	-5003
▁भागी	-5004
व्यवस्था	-5005
cies	-5006
▁followed	-5007
▁कदम	-5008
▁क़ुर	-5009
▁doubt	-5010
▁उत	-5011
▁early	-5012
▁exc	-5013
▁पंजी	-5014
▁parent	-5015
कीय	-5016
त्तर	-5017
▁विरुद्ध	-5018
▁transfer	-5019
▁consum	-5020
▁Ap	-5021
▁ख़बर	-5022
ptions	-5023
▁industrial	-5024
▁बढ	-5025
▁संसाधन	-5026
क्टर	-5027
▁Whether	-5028
▁Kh	-5029
क्शन	-5030
▁उपस्थित	-5031
ंदा	-5032
rs	-5033
▁assessment	-5034
णि	-5035
यल	-5036
▁पल	-5037
▁chall	-5038
▁दस	-5039
▁छोटी	-5040
दो	-5041
ilk	-5042
attle	-5043
▁सच	-5044
ज्ञात	-5045
▁पैग़म्बर	-5046
यक	-5047
धनों	-5048
▁Trans	-5049
▁training	-5050
▁गिरोह	-5051
▁अनिवार	-5052
▁Bi	-5053
भूति	-5054
▁पृथ	-5055
▁बैठे	-5056
▁एह	-5057
▁ज़ालिम	-5058
▁Error	-5059
▁member	-5060
▁प्रदर्शन	-5061
▁अत्या	-5062
▁गुणवत्ता	-5063
▁छोड़कर	-5064
kind	-5065
▁stay	-5066
▁मशीन	-5067
▁soft	-5068
▁credit	-5069
किंग	-5070
▁pros	-5071
adem	-5072
tings	-5073
iveness	-5074
लिम	-5075
▁gen	-5076
▁पसंद	-5077
gment	-5078
ार्मिक	-5079
▁भंड	-5080
▁स्म	-5081
▁रखी	-5082
▁जिला	-5083
▁प्राकृतिक	-5084
▁Cannot	-5085
▁independ	-5086
▁विविध	-5087
▁Where	-5088
▁creation	-5089
यह	-5090
vent	-5091
▁१९	-5092
▁छात्र	-5093
▁नेटवर्क	-5094
▁dead	-5095
▁opens	-5096
▁di	-5097
▁log	-5098
▁Are	-5099
▁Mon	-5100
ump	-5101
न्दर	-5102
▁temple	-5103
▁प्रभावी	-5104
उट	-5105
चक	-5106
प्ता	-5107
▁Int	-5108
iction	-5109
mon	-5110
▁जाति	-5111
▁woman	-5112
▁प्राचीन	-5113
वेयर	-5114
वाला	-5115
▁सख्त	-5116
▁programm	-5117
▁neg	-5118
▁सम्बन्ध	-5119
AS	-5120
▁dire	-5121
ल्लाह	-5122
▁बताया	-5123
न्स	-5124
▁अंक	-5125
▁आते	-5126
▁अता	-5127
▁लघु	-5128
▁...	-5129
▁पकड़	-5130
▁नमाज़	-5131
ब्दी	-5132
▁उपाय	-5133
▁saying	-5134
▁May	-5135
▁पर्व	-5136
▁अधिकांश	-5137
ल्ड	-5138
ane	-5139
vere	-5140
▁प्रसन्न	-5141
aste	-5142
oke	-5143
▁event	-5144
alay	-5145
▁File	-5146
▁भोजन	-5147
▁इच्छा	-5148
▁मेहर	-5149
▁पश्चिम	-5150
uge	-5151
▁outside	-5152
▁80	-5153
▁eat	-5154
▁literature	-5155
▁achieve	-5156
▁tou	-5157
▁तुलना	-5158
त्री	-5159
▁आंद	-5160
▁capacity	-5161
▁इला	-5162
▁विद्यार्थ	-5163
रज़	-5164
▁हट	-5165
मेलन	-5166
▁समृ	-5167
चारियों	-5168
▁बौ	-5169
धिकार	-5170
6.	-5171
rist	-5172
▁अगले	-5173
▁democ	-5174
फे	-5175
▁ज़रूर	-5176
▁महारा	-5177
▁अनिवार्य	-5178
▁hope	-5179
▁bless	-5180
▁san	-5181
▁धार्मिक	-5182
▁शिकाय	-5183
▁गतिविध	-5184
▁Qu	-5185
▁write	-5186
▁वर्णन	-5187
▁Even	-5188
▁drink	-5189
▁Prophet	-5190
▁disease	-5191
ंकि	-5192
▁गर्इ	-5193
▁provision	-5194
emed	-5195
▁town	-5196
¤2	-5197
omb	-5198
▁रखें	-5199
▁birth	-5200
षणा	-5201
alse	-5202
थर	-5203
वह	-5204
कारों	-5205
ada	-5206
abad	-5207
▁वैज्ञानिक	-5208
▁half	-5209
▁वायु	-5210
▁arr	-5211
जूद	-5212
▁trib	-5213
▁wife	-5214
न्दा	-5215
▁मना	-5216
▁बनाना	-5217
▁समाधान	-5218
▁परीक्षा	-5219
▁कंप्यूटर	-5220
्ब	-5221
▁mode	-5222
▁प्रोग्राम	-5223
▁हस्ताक्षर	-5224
▁ऊँ	-5225
▁Rec	-5226
▁gard	-5227
▁sea	-5228
ique	-5229
usion	-5230
▁mass	-5231
▁लेना	-5232
ulated	-5233
▁बन्दों	-5234
ह्न	-5235
▁शक	-5236
▁payment	-5237
▁population	-5238
▁हृ	-5239
▁user	-5240
▁charge	-5241
yle	-5242
▁fem	-5243
▁tar	-5244
▁stra	-5245
▁40	-5246
▁पश्चा	-5247
दायत	-5248
▁Div	-5249
एगा	-5250
▁अधिकारियों	-5251
.,	-5252
▁लगी	-5253
▁वीडियो	-5254
iddle	-5255
▁ग्रह	-5256
▁programme	-5257
ex	-5258
▁rights	-5259
▁ब्याज	-5260
ler	-5261
याँ	-5262
▁disbelieve	-5263
रित	-5264
▁wide	-5265
▁आपका	-5266
▁official	-5267
स्य	-5268
▁अक	-5269
▁विज	-5270
▁document	-5271
▁aim	-5272
▁saw	-5273
ल्स	-5274
▁जोड़ें	-5275
uration	-5276
▁remain	-5277
▁personal	-5278
my	-5279
्रीन	-5280
▁sust	-5281
▁People	-5282
▁angels	-5283
▁Mod	-5284
▁मिली	-5285
▁मुह	-5286
▁ir	-5287
▁compet	-5288
खे	-5289
▁मोह	-5290
▁खड़े	-5291
pecial	-5292
ेप	-5293
wise	-5294
▁mankind	-5295
▁संभावना	-5296
▁सम्मेलन	-5297
▁IN	-5298
▁कूट	-5299
posed	-5300
▁pal	-5301
▁US	-5302
▁Aut	-5303
▁insp	-5304
▁lost	-5305
▁कुंजी	-5306
▁मिलता	-5307
नाम	-5308
▁TO	-5309
▁lat	-5310
▁अक्	-5311
▁ईश्वर	-5312
▁शीघ्र	-5313
▁संस्थानों	-5314
यें	-5315
▁typ	-5316
▁तुमपर	-5317
▁उन्हीं	-5318
ell	-5319
▁immedi	-5320
ares	-5321
राहीम	-5322
▁जल्दी	-5323
▁आख़िरत	-5324
3.	-5325
▁Per	-5326
▁resources	-5327
▁पाने	-5328
▁include	-5329
▁try	-5330
▁दबा	-5331
▁वाक़	-5332
▁cut	-5333
rastructure	-5334
▁receive	-5335
रू	-5336
साथ	-5337
▁संपत्ति	-5338
▁पद्ध	-5339
▁Mukherjee	-5340
झी	-5341
ava	-5342
face	-5343
ंपरा	-5344
ज़ार	-5345
ल्कुल	-5346
ाई	-5347
vert	-5348
▁exe	-5349
▁शैली	-5350
▁judge	-5351
▁almost	-5352
▁request	-5353
4.	-5354
▁सात	-5355
▁दर्शा	-5356
रान	-5357
▁stru	-5358
undred	-5359
▁उम्मीद	-5360
▁sugg	-5361
pril	-5362
estern	-5363
▁मजबूत	-5364
▁cases	-5365
▁deny	-5366
▁तुममें	-5367
स्लिम	-5368
न्नत	-5369
▁innov	-5370
Ex	-5371
▁suggest	-5372
▁आती	-5373
▁उपभ	-5374
ufact	-5375
▁करनी	-5376
▁Rel	-5377
औन	-5378
▁चीज	-5379
rew	-5380
ाब	-5381
संग	-5382
▁प्रणब	-5383
▁rule	-5384
▁price	-5385
▁Section	-5386
▁earlier	-5387
aff	-5388
ार्क	-5389
ताल	-5390
empt	-5391
▁बर्	-5392
ोजनों	-5393
▁kept	-5394
anskrit	-5395
▁accom	-5396
▁writing	-5397
▁revel	-5398
▁तारीख	-5399
duc	-5400
▁वैश्व	-5401
IL	-5402
▁multip	-5403
▁हिन्दी	-5404
िकोण	-5405
▁कविता	-5406
▁पुनर्	-5407
वों	-5408
स्टम	-5409
ेगा	-5410
▁raised	-5411
▁ब्रिट	-5412
▁across	-5413
▁bal	-5414
▁deli	-5415
▁lakh	-5416
▁संसार	-5417
▁समझते	-5418
▁continue	-5419
▁Mem	-5420
5.	-5421
ging	-5422
▁rad	-5423
▁experience	-5424
▁seven	-5425
▁Merciful	-5426
¤1	-5427
ॉप	-5428
isf	-5429
स्टर	-5430
▁Sabha	-5431
▁Project	-5432
▁छु	-5433
▁install	-5434
▁similar	-5435
▁श्रेणीः	-5436
▁चिकित्सा	-5437
▁खरीद	-5438
press	-5439
▁हालत	-5440
▁कने	-5441
िश्ते	-5442
▁जरूरी	-5443
▁strength	-5444
▁cast	-5445
▁Institute	-5446
▁कार्यों	-5447
▁रहती	-5448
▁torment	-5449
▁एज	-5450
▁गं	-5451
▁पहल	-5452
स्वरूप	-5453
▁Afric	-5454
▁space	-5455
▁स्त्र	-5456
▁says	-5457
▁खर्च	-5458
▁सम्मिल	-5459
ँकि	-5460
▁डरा	-5461
ables	-5462
▁enough	-5463
मेंट	-5464
▁इन्ह	-5465
▁दिलों	-5466
▁require	-5467
▁अंश	-5468
▁हिदायत	-5469
धियों	-5470
UR	-5471
बु	-5472
▁विद	-5473
ifest	-5474
▁मानते	-5475
▁पुलिस	-5476
▁products	-5477
▁Fl	-5478
gest	-5479
▁boy	-5480
▁job	-5481
▁रहना	-5482
▁सित	-5483
endar	-5484
▁third	-5485
ठित	-5486
▁(3)	-5487
II	-5488
erved	-5489
▁सीमित	-5490
▁operation	-5491
ees	-5492
्वेष	-5493
▁ign	-5494
्प	-5495
जली	-5496
▁Tra	-5497
▁1961	-5498
ठी	-5499
▁पिता	-5500
rection	-5501
▁pow	-5502
▁अनुप्रयोग	-5503
▁Jan	-5504
▁astr	-5505
कालीन	-5506
विक	-5507
▁तथ	-5508
▁West	-5509
ators	-5510
▁निर्भर	-5511
▁district	-5512
▁laun	-5513
▁Mahar	-5514
▁सैन	-5515
▁enem	-5516
▁ब्रिटिश	-5517
▁SA	-5518
rences	-5519
▁projects	-5520
ालित	-5521
▁निर्मित	-5522
rote	-5523
▁हजार	-5524
-#-#	-5525
▁भंडार	-5526
▁private	-5527
▁structure	-5528
▁सारी	-5529
▁farmers	-5530
uary	-5531
▁जहन्नुम	-5532
▁Republic	-5533
▁फेर	-5534
▁विफल	-5535
शय	-5536
सिद्ध	-5537
▁युग	-5538
▁Arab	-5539
▁वार्ष	-5540
▁affect	-5541
▁साधारण	-5542
▁science	-5543
▁apply	-5544
▁करनेवालों	-5545
▁परंपरा	-5546
let	-5547
▁states	-5548
▁desire	-5549
▁बिल्कुल	-5550
▁Budd	-5551
▁रास्त	-5552
ब्र	-5553
▁इबराहीम	-5554
▁पहुंचा	-5555
▁hundred	-5556
▁दुख	-5557
▁नो	-5558
gn	-5559
▁प्रवि	-5560
ager	-5561
well	-5562
▁below	-5563
▁guard	-5564
oly	-5565
lebr	-5566
▁investment	-5567
देव	-5568
▁Med	-5569
igation	-5570
▁Work	-5571
▁lear	-5572
▁अपील	-5573
▁आपने	-5574
▁छोटा	-5575
▁astray	-5576
▁भगवान	-5577
दर्शी	-5578
▁गलत	-5579
▁Pers	-5580
ivity	-5581
▁Board	-5582
▁शाखा	-5583
▁influ	-5584
▁संकेत	-5585
डल	-5586
▁Jud	-5587
▁शताब्दी	-5588
▁बख	-5589
▁introdu	-5590
▁अर्थव्यवस्था	-5591
oud	-5592
▁guide	-5593
umn	-5594
▁pra	-5595
मीर	-5596
राब	-5597
▁ताल	-5598
anda	-5599
▁conne	-5600
▁परिच	-5601
▁संशोधन	-5602
तया	-5603
▁id	-5604
▁भ्र	-5605
▁wait	-5606
▁आदर्श	-5607
अपने	-5608
▁fulf	-5609
ban	-5610
▁नसी	-5611
▁किसानों	-5612
▁signific	-5613
▁United	-5614
्राष्ट्रीय	-5615
▁carried	-5616
▁forms	-5617
▁शेष	-5618
▁tour	-5619
▁eight	-5620
owed	-5621
म्म	-5622
▁failed	-5623
▁अभिलेख	-5624
▁draw	-5625
▁Off	-5626
▁front	-5627
▁East	-5628
्यालयों	-5629
▁teacher	-5630
▁page	-5631
▁सच्चे	-5632
pecially	-5633
haps	-5634
▁विरोध	-5635
▁guided	-5636
fficient	-5637
▁April	-5638
▁विचारों	-5639
);	-5640
▁Che	-5641
▁तरफ़	-5642
▁decided	-5643
▁exchange	-5644
▁शैतान	-5645
▁Sur	-5646
▁प्रतिष्ठ	-5647
",	-5648
▁Asia	-5649
▁attack	-5650
nds	-5651
ney	-5652
▁0.	-5653
▁rural	-5654
▁प्रदर्शित	-5655
▁हवा	-5656
fo	-5657
▁hear	-5658
वृत्ति	-5659
▁खुलती	-5660
▁व्यक्तिगत	-5661
▁मौजूदा	-5662
▁From	-5663
▁अंदर	-5664
▁reform	-5665
▁अत्यंत	-5666
▁ancient	-5667
▁एव	-5668
agar	-5669
llah	-5670
▁Pun	-5671
lear	-5672
▁bear	-5673
▁Brah	-5674
▁provides	-5675
भूम	-5676
estic	-5677
▁prepared	-5678
कात	-5679
▁समुद्र	-5680
▁निर्वा	-5681
स्कृतिक	-5682
▁आंदोलन	-5683
▁प्रयोजनों	-5684
ंगल	-5685
ध्या	-5686
▁World	-5687
▁places	-5688
म्र	-5689
▁महीने	-5690
▁quot	-5691
▁South	-5692
▁relating	-5693
▁issue	-5694
ales	-5695
▁अप्रैल	-5696
▁संघर्ष	-5697
धर	-5698
▁विंडों	-5699
▁इंटर	-5700
▁economy	-5701
▁फी	-5702
ades	-5703
nding	-5704
वै	-5705
▁शक़	-5706
▁approach	-5707
▁सम्मिलित	-5708
्‍य	-5709
▁निगम	-5710
सब	-5711
▁music	-5712
दूसरे	-5713
▁King	-5714
▁अंग्रेजी	-5715
eb	-5716
▁सत्या	-5717
▁नेता	-5718
▁bound	-5719
11	-5720
▁Ins	-5721
▁Pal	-5722
▁Sanskrit	-5723
ब्ल	-5724
gram	-5725
▁विद्व	-5726
▁कठिन	-5727
▁behalf	-5728
ED	-5729
कुल	-5730
▁कीमत	-5731
▁मुस्लिम	-5732
▁decision	-5733
लग्न	-5734
▁disbelievers	-5735
▁promise	-5736
▁Use	-5737
▁काट	-5738
▁स्थायी	-5739
िना	-5740
▁Their	-5741
uck	-5742
▁नागरिक	-5743
▁strengthen	-5744
▁coop	-5745
▁improve	-5746
▁29	-5747
▁foc	-5748
▁सदैव	-5749
▁बढ़ाने	-5750
mir	-5751
ports	-5752
▁विवाह	-5753
▁produce	-5754
▁घट	-5755
urance	-5756
vant	-5757
ल्ला	-5758
तरा	-5759
▁Gur	-5760
▁Har	-5761
▁चरण	-5762
▁issues	-5763
5)	-5764
्रेड	-5765
▁crop	-5766
▁dark	-5767
▁built	-5768
eral	-5769
▁led	-5770
▁manufact	-5771
▁Up	-5772
▁defe	-5773
▁status	-5774
ेक्ट	-5775
▁इंडिया	-5776
▁बुद्धि	-5777
▁चढ़	-5778
मैं	-5779
हरे	-5780
▁Ak	-5781
iture	-5782
परि	-5783
▁लगाया	-5784
▁actually	-5785
▁नोट	-5786
ष्ट्र	-5787
▁situation	-5788
▁फैला	-5789
▁accord	-5790
▁महत्त्व	-5791
िमी	-5792
▁video	-5793
▁da	-5794
▁color	-5795
▁depos	-5796
ियत	-5797
▁stop	-5798
▁rules	-5799
▁proceed	-5800
जनक	-5801
▁जोर	-5802
osop	-5803
▁tele	-5804
▁रहेगा	-5805
▁आकाशों	-5806
न्त्र	-5807
▁Cert	-5808
▁तेजी	-5809
▁जिम्मे	-5810
▁popular	-5811
▁झग	-5812
▁lives	-5813
▁instrument	-5814
inion	-5815
गिज़	-5816
्यान्व	-5817
▁शुल्क	-5818
amed	-5819
ार्म	-5820
▁मार्च	-5821
▁published	-5822
▁मिट्टी	-5823
▁whoever	-5824
▁Technology	-5825
aka	-5826
▁Pranab	-5827
aà	-5828
▁prayer	-5829
reg	-5830
▁secret	-5831
▁Educ	-5832
▁पहला	-5833
▁meaning	-5834
ici	-5835
▁Chief	-5836
▁जाँच	-5837
ourage	-5838
▁घोषणा	-5839
▁Pur	-5840
▁अनुच्छेद	-5841
▁खास	-5842
▁rain	-5843
▁एल	-5844
▁2007	-5845
▁संत	-5846
bed	-5847
▁भली	-5848
▁मिस	-5849
▁false	-5850
▁ensure	-5851
▁जिसको	-5852
साद	-5853
▁नये	-5854
▁हालाँकि	-5855
▁कार्यान्व	-5856
▁प्रत्यक्ष	-5857
दाता	-5858
▁आंक	-5859
▁लेखक	-5860
▁निशानियाँ	-5861
▁deb	-5862
▁crore	-5863
▁दृष्टिकोण	-5864
▁study	-5865
▁कहेंगे	-5866
de	-5867
▁CO	-5868
mark	-5869
2,	-5870
▁rich	-5871
▁Income	-5872
▁groups	-5873
▁व्यय	-5874
▁subst	-5875
▁60	-5876
▁Account	-5877
ening	-5878
▁सज़ा	-5879
▁परिषद	-5880
'.	-5881
chan	-5882
▁फिल	-5883
▁happy	-5884
que	-5885
▁सॉ	-5886
भूमि	-5887
▁besides	-5888
▁दायित्व	-5889
▁चुनाव	-5890
▁satisf	-5891
्वा	-5892
नु	-5893
▁अस्त	-5894
▁परिवर्त	-5895
इड	-5896
jab	-5897
भाषा	-5898
▁बढ़ावा	-5899
▁values	-5900
itle	-5901
▁बाव	-5902
▁प्	-5903
▁चलते	-5904
▁indic	-5905
▁unbelievers	-5906
▁सरल	-5907
▁Every	-5908
▁Def	-5909
▁physical	-5910
बाहरी	-5911
▁forb	-5912
▁road	-5913
▁details	-5914
▁संस्कृत	-5915
mes	-5916
▁essential	-5917
यण	-5918
▁बीमा	-5919
▁मालिक	-5920
▁especially	-5921
enty	-5922
▁original	-5923
ume	-5924
साब	-5925
▁friends	-5926
▁अफ्री	-5927
ंबई	-5928
▁गवाह	-5929
ilosop	-5930
्वाह	-5931
्यूशन	-5932
▁पंजा	-5933
▁Cons	-5934
▁Net	-5935
▁पाक	-5936
asure	-5937
▁गंभीर	-5938
▁पड़ता	-5939
▁Leg	-5940
▁ग्राह	-5941
फार	-5942
▁फे	-5943
▁opportunity	-5944
RO	-5945
adu	-5946
▁Indust	-5947
▁Child	-5948
▁देखें	-5949
ोने	-5950
band	-5951
▁har	-5952
▁असा	-5953
रिया	-5954
▁ड्र	-5955
▁regular	-5956
▁View	-5957
▁coming	-5958
▁accepted	-5959
फ़ार	-5960
▁सांस्कृतिक	-5961
जीव	-5962
कृष्ट	-5963
▁इनके	-5964
▁attend	-5965
▁univers	-5966
▁wall	-5967
▁कानू	-5968
▁रुपये	-5969
शाला	-5970
▁तर्क	-5971
▁रहें	-5972
▁उपयुक्त	-5973
▁लेता	-5974
oe	-5975
▁Right	-5976
urrection	-5977
▁conscious	-5978
सभा	-5979
fort	-5980
▁अधिस	-5981
▁river	-5982
▁वैश्विक	-5983
▁बौद्ध	-5984
▁आपस	-5985
ites	-5986
अल्लाह	-5987
▁occur	-5988
gar	-5989
▁sens	-5990
ितीय	-5991
▁नसीहत	-5992
▁तकनीकी	-5993
yond	-5994
▁vict	-5995
▁celebr	-5996
▁providing	-5997
▁भूल	-5998
क्षेत्र	-5999
▁dig	-6000
ंचे	-6001
▁वस्तुओं	-6002
ulate	-6003
प्ताह	-6004
दूर	-6005
▁पाए	-6006
▁letter	-6007
दना	-6008
▁copy	-6009
▁lower	-6010
▁पश्चात्	-6011
▁load	-6012
▁बनाकर	-6013
▁Category	-6014
मारी	-6015
▁कार्र	-6016
anation	-6017
▁evidence	-6018
▁concerned	-6019
▁दोष	-6020
▁लोड	-6021
hest	-6022
▁wid	-6023
light	-6024
▁Have	-6025
▁सत्र	-6026
▁Secret	-6027
▁गाय	-6028
▁रोजगार	-6029
ley	-6030
load	-6031
aving	-6032
▁During	-6033
▁caused	-6034
▁सश	-6035
वृत्त	-6036
▁घरों	-6037
▁पात्र	-6038
▁मिलने	-6039
▁increased	-6040
▁अंतरराष्ट्रीय	-6041
▁ste	-6042
▁खुश	-6043
▁प्रतीक	-6044
▁ways	-6045
▁Christ	-6046
▁facilities	-6047
ढ़ी	-6048
▁प्राण	-6049
▁specific	-6050
ख़्श	-6051
▁teach	-6052
▁obt	-6053
▁Under	-6054
▁मस	-6055
▁giving	-6056
8.	-6057
▁wrote	-6058
▁खूब	-6059
do	-6060
▁reached	-6061
▁महिलाओं	-6062
▁क्षेत्रीय	-6063
▁easy	-6064
▁देखो	-6065
▁बनाई	-6066
ration	-6067
ott	-6068
भारत	-6069
नियों	-6070
▁जिनका	-6071
▁becomes	-6072
▁प्रयासों	-6073
▁Fore	-6074
▁stage	-6075
सूस	-6076
abled	-6077
cle	-6078
▁हृदय	-6079
▁International	-6080
ादी	-6081
एँगे	-6082
▁fair	-6083
▁remind	-6084
▁names	-6085
▁4.	-6086
क्ष्म	-6087
▁Will	-6088
▁conv	-6089
▁percent	-6090
war	-6091
▁प्रसार	-6092
ATION	-6093
▁बुरी	-6094
▁नियुक्त	-6095
▁साझी	-6096
▁पत्थर	-6097
External	-6098
▁जादू	-6099
▁विनिर्दिष्ट	-6100
मर	-6101
oon	-6102
head	-6103
▁dam	-6104
▁Sign	-6105
".	-6106
▁191	-6107
▁टुक	-6108
▁नाटक	-6109
▁While	-6110
▁प्रभार	-6111
▁Cre	-6112
▁Dist	-6113
▁manifest	-6114
▁Sm	-6115
▁खाद्य	-6116
▁मज़	-6117
▁35	-6118
ुमार	-6119
▁शास्त	-6120
▁व्याख्या	-6121
खर	-6122
िकाओं	-6123
ocation	-6124
▁भय	-6125
▁अनुवाद	-6126
▁possess	-6127
kar	-6128
▁अधिकतर	-6129
aughter	-6130
▁citizens	-6131
att	-6132
▁2013	-6133
▁break	-6134
▁began	-6135
▁कठोर	-6136
▁दिखाया	-6137
▁भरो	-6138
कामना	-6139
▁feed	-6140
▁room	-6141
▁स्वरूप	-6142
▁Hereafter	-6143
ras	-6144
ूंगा	-6145
▁mut	-6146
▁अधिसू	-6147
▁संदे	-6148
▁thereof	-6149
▁prescribed	-6150
▁bill	-6151
प्रिय	-6152
▁दिये	-6153
ूँगा	-6154
▁उत्तम	-6155
▁पद्धति	-6156
▁Service	-6157
oday	-6158
▁morning	-6159
▁programmes	-6160
▁infrastructure	-6161
iting	-6162
▁belongs	-6163
▁शास	-6164
चित्र	-6165
▁अधिकतम	-6166
▁arri	-6167
▁बिजली	-6168
▁instead	-6169
▁विस्तृत	-6170
▁प्लग	-6171
▁expend	-6172
▁measure	-6173
rog	-6174
▁एच	-6175
▁समाचार	-6176
धानी	-6177
▁2006	-6178
▁अनुसू	-6179
mbly	-6180
▁Save	-6181
uction	-6182
▁rather	-6183
9.	-6184
hib	-6185
▁सिस्टम	-6186
▁Officer	-6187
▁खोलें	-6188
ervation	-6189
▁die	-6190
बूल	-6191
▁Fir	-6192
▁व्याव	-6193
▁संस्करण	-6194
▁appear	-6195
▁इजरा	-6196
▁cultural	-6197
▁ज़ु	-6198
▁Krish	-6199
▁कहानी	-6200
▁गुजरा	-6201
▁स्वामी	-6202
-2018	-6203
''	-6204
नर	-6205
▁नियत	-6206
▁unless	-6207
▁March	-6208
ground	-6209
▁सरक	-6210
▁इतनी	-6211
▁वाक़ि	-6212
▁समक्ष	-6213
▁बख्श	-6214
कद	-6215
▁अंध	-6216
▁दीर्	-6217
encies	-6218
▁बावजूद	-6219
व्र	-6220
ober	-6221
▁शक्त	-6222
▁Ge	-6223
▁शिव	-6224
▁मार्गदर्शन	-6225
inn	-6226
▁Expl	-6227
▁Guj	-6228
▁ग्राम	-6229
▁prevent	-6230
▁yourselves	-6231
▁Commissioner	-6232
▁Ma	-6233
▁bird	-6234
▁पार्टी	-6235
▁justice	-6236
▁beyond	-6237
वें	-6238
▁वाता	-6239
▁clean	-6240
▁प्रयुक्त	-6241
▁शुभकामना	-6242
ils	-6243
▁अरब	-6244
▁शेयर	-6245
▁प्रेर	-6246
▁इंज	-6247
्रिया	-6248
▁सीख	-6249
▁क़यामत	-6250
▁आतंकवाद	-6251
▁importance	-6252
▁कटौती	-6253
▁shown	-6254
▁origin	-6255
▁माह	-6256
▁concer	-6257
▁हालांकि	-6258
wh	-6259
oice	-6260
▁coll	-6261
▁comb	-6262
▁central	-6263
बूद	-6264
▁Governor	-6265
.'	-6266
िक्री	-6267
▁bi	-6268
▁बुनिया	-6269
▁मूल्या	-6270
मल	-6271
vest	-6272
▁विनि	-6273
▁Val	-6274
60	-6275
ंटे	-6276
लिंग	-6277
▁त्व	-6278
▁device	-6279
cribe	-6280
▁पश्चिमी	-6281
▁करनेवाला	-6282
raw	-6283
▁chast	-6284
▁फैस	-6285
▁camp	-6286
▁forest	-6287
7.	-6288
▁अनुकूल	-6289
▁निरंतर	-6290
▁Pak	-6291
▁पाय	-6292
▁prim	-6293
▁password	-6294
ection	-6295
▁चिह्न	-6296
▁placed	-6297
▁Sam	-6298
▁prop	-6299
EE	-6300
▁सज	-6301
ुत्व	-6302
▁prior	-6303
▁परस्पर	-6304
▁फाय	-6305
▁sky	-6306
▁stone	-6307
CC	-6308
भाष	-6309
तृत्व	-6310
ॉन	-6311
वहन	-6312
▁disp	-6313
▁विमान	-6314
▁appoint	-6315
▁“%	-6316
resh	-6317
▁मोड	-6318
▁छिपा	-6319
▁languages	-6320
▁Art	-6321
▁Hell	-6322
▁Africa	-6323
abor	-6324
▁returned	-6325
▁song	-6326
▁mere	-6327
▁एफ	-6328
▁responsible	-6329
न्ना	-6330
▁मेल	-6331
▁idea	-6332
▁accounts	-6333
▁स्पष्टीकरण	-6334
र्र	-6335
▁मास	-6336
त्न	-6337
▁bit	-6338
▁fail	-6339
▁दर्शन	-6340
▁रोज़ी	-6341
▁सामना	-6342
▁सम्प	-6343
▁North	-6344
▁खाली	-6345
▁सबको	-6346
▁emerg	-6347
▁takes	-6348
▁fort	-6349
त्‍	-6350
▁डाटा	-6351
▁Director	-6352
दों	-6353
सों	-6354
▁विध	-6355
▁weak	-6356
खिल	-6357
ule	-6358
द्धा	-6359
▁परिस्थित	-6360
▁agreement	-6361
▁अवै	-6362
▁दीवार	-6363
irm	-6364
▁प्रच	-6365
▁und	-6366
अपनी	-6367
▁answer	-6368
ili	-6369
▁Sim	-6370
sect	-6371
▁Bal	-6372
▁aver	-6373
▁2016	-6374
▁वार्षिक	-6375
known	-6376
▁2014	-6377
▁गहरा	-6378
▁संचार	-6379
▁rivers	-6380
▁default	-6381
)।	-6382
ST	-6383
▁वायदा	-6384
▁मिशन	-6385
▁poin	-6386
elf	-6387
▁हार	-6388
▁lies	-6389
▁Other	-6390
▁inform	-6391
▁गतिविधियों	-6392
30	-6393
▁loan	-6394
▁schol	-6395
▁style	-6396
▁वातावरण	-6397
▁कल्या	-6398
▁मिलकर	-6399
▁पूर्ववर्ष	-6400
▁रेखा	-6401
▁प्रसिद्ध	-6402
8,	-6403
▁विल	-6404
▁Gl	-6405
This	-6406
▁Moh	-6407
omet	-6408
▁सकेगा	-6409
▁हाथों	-6410
बादत	-6411
▁der	-6412
▁आसान	-6413
▁Failed	-6414
▁ऑन	-6415
▁gir	-6416
▁potential	-6417
्ति	-6418
▁यंत्र	-6419
▁मुसलमानों	-6420
india	-6421
▁संलग्न	-6422
▁effective	-6423
▁Centre	-6424
▁सचि	-6425
▁2005	-6426
though	-6427
▁अके	-6428
जिए	-6429
▁bad	-6430
▁जानवर	-6431
वासियों	-6432
▁heaven	-6433
▁heard	-6434
▁खड़ा	-6435
▁contribut	-6436
▁beginning	-6437
पास	-6438
▁अना	-6439
▁coun	-6440
▁राजन	-6441
▁Ac	-6442
▁Of	-6443
ोल्यूशन	-6444
▁बॉ	-6445
▁hor	-6446
▁तला	-6447
▁Plan	-6448
▁चलता	-6449
▁द्वार	-6450
▁govern	-6451
icro	-6452
▁कार्ड	-6453
▁नियमों	-6454
▁Education	-6455
स्वी	-6456
RA	-6457
ट्र	-6458
▁burn	-6459
▁समर्	-6460
▁win	-6461
▁Gang	-6462
नेवालों	-6463
anced	-6464
▁Group	-6465
▁हिन्दू	-6466
▁deg	-6467
ोकन	-6468
▁लिखने	-6469
यत	-6470
िज	-6471
▁setting	-6472
rug	-6473
▁Lib	-6474
▁powers	-6475
▁नियमित	-6476
▁servants	-6477
जु	-6478
EL	-6479
▁Forg	-6480
▁understanding	-6481
inate	-6482
▁टाइ	-6483
▁round	-6484
▁Evolution	-6485
▁spiritual	-6486
दिक	-6487
racy	-6488
ून्य	-6489
▁इत्या	-6490
▁अपराध	-6491
ेंशन	-6492
▁क्लिक	-6493
▁quite	-6494
▁करनेवाले	-6495
▁कर्मचारियों	-6496
▁नामक	-6497
lict	-6498
▁आरो	-6499
▁संपूर्ण	-6500
▁करी	-6501
किस्तान	-6502
▁खी	-6503
▁Scheme	-6504
▁सूक्ष्म	-6505
▁मंज	-6506
भु	-6507
पुट	-6508
▁added	-6509
▁gone	-6510
▁महसूस	-6511
▁अवि	-6512
▁स्वागत	-6513
▁फ़ैस	-6514
▁Quran	-6515
▁contract	-6516
▁existing	-6517
¤¤	-6518
ंकर	-6519
किल	-6520
▁else	-6521
▁connection	-6522
लोड	-6523
▁वेतन	-6524
▁अभिव्य	-6525
ँव	-6526
वाली	-6527
▁हानि	-6528
▁भला	-6529
▁मतलब	-6530
▁ग्रहण	-6531
▁parents	-6532
▁ge	-6533
▁मल	-6534
▁histor	-6535
▁article	-6536
▁Move	-6537
▁अनुमान	-6538
icles	-6539
riage	-6540
haraoh	-6541
▁स्त्री	-6542
▁परीक्षण	-6543
ंखला	-6544
▁unjust	-6545
▁philosop	-6546
टिल	-6547
▁emb	-6548
▁सुझा	-6549
▁रौ	-6550
▁अंड	-6551
▁offer	-6552
▁System	-6553
▁शिकायत	-6554
▁Sup	-6555
▁बंध	-6556
ंका	-6557
▁आंत	-6558
▁treatment	-6559
▁Sa	-6560
▁nar	-6561
▁vision	-6562
▁तमा	-6563
▁simple	-6564
▁स्‍	-6565
▁माँग	-6566
▁सारा	-6567
▁speech	-6568
rem	-6569
iff	-6570
▁Kash	-6571
▁Many	-6572
▁mom	-6573
▁चैन	-6574
▁folk	-6575
▁notice	-6576
▁legal	-6577
ropri	-6578
▁IS	-6579
▁oil	-6580
▁हाँ	-6581
▁obey	-6582
▁अद्य	-6583
standing	-6584
amil	-6585
▁दीन	-6586
▁विश्ले	-6587
ंचाई	-6588
▁पैर	-6589
▁activity	-6590
co	-6591
,"	-6592
हि	-6593
▁सदन	-6594
▁उपचार	-6595
▁अफ्रीका	-6596
ाक	-6597
बरी	-6598
▁कथ	-6599
▁वर	-6600
▁Bar	-6601
▁अस्प	-6602
▁दावा	-6603
▁हरगिज़	-6604
▁झुठलाया	-6605
AME	-6606
▁प्रेष	-6607
].	-6608
▁पंच	-6609
ctors	-6610
raham	-6611
▁सर्वा	-6612
▁कार्रवाई	-6613
▁अवैध	-6614
ताव	-6615
▁lie	-6616
▁देकर	-6617
▁हिसाब	-6618
▁बनाएँ	-6619
▁Pakistan	-6620
▁Author	-6621
▁Research	-6622
▁Unt	-6623
▁bond	-6624
▁fif	-6625
▁ship	-6626
▁स्वच्छ	-6627
▁Air	-6628
▁mot	-6629
▁certificate	-6630
ami	-6631
पों	-6632
▁sn	-6633
▁Out	-6634
▁बाहरी	-6635
oom	-6636
▁पंक्ति	-6637
▁बजा	-6638
▁माता	-6639
▁presented	-6640
टेड	-6641
▁अद	-6642
▁Ser	-6643
▁साम्रा	-6644
▁2001	-6645
▁Gard	-6646
▁अक्सर	-6647
la	-6648
▁youth	-6649
▁इन्हें	-6650
▁टन	-6651
arge	-6652
▁आये	-6653
▁asset	-6654
ressed	-6655
▁excell	-6656
▁मूर्ति	-6657
▁शुभकामनाएं	-6658
▁direction	-6659
▁existence	-6660
▁Dele	-6661
▁week	-6662
▁colle	-6663
▁exerc	-6664
▁भरोसा	-6665
▁favour	-6666
र्त	-6667
▁इबादत	-6668
▁agricultural	-6669
▁black	-6670
ष्क	-6671
▁जाएं	-6672
▁वाह	-6673
▁goes	-6674
▁भौतिक	-6675
▁सूर्य	-6676
▁सहेजें	-6677
▁प्रावधान	-6678
ँति	-6679
▁प्राप्ति	-6680
▁concerning	-6681
ingu	-6682
▁तौबा	-6683
▁कल्याण	-6684
▁परा	-6685
▁मात्र	-6686
ancy	-6687
▁उपय	-6688
▁unit	-6689
▁जीवित	-6690
IR	-6691
▁item	-6692
▁कारबार	-6693
▁kill	-6694
▁strugg	-6695
▁चम	-6696
▁पीठ	-6697
▁जिनकी	-6698
▁दंड	-6699
▁proced	-6700
▁basic	-6701
▁compl	-6702
▁पाठ्य	-6703
▁समस्याओं	-6704
AY	-6705
▁ep	-6706
▁पेज	-6707
▁प्रसन्नता	-6708
▁emp	-6709
▁खाने	-6710
रेट	-6711
▁sle	-6712
ML	-6713
antly	-6714
▁जनवरी	-6715
▁content	-6716
',	-6717
▁Sar	-6718
▁अंतर्राष्ट्रीय	-6719
sy	-6720
nal	-6721
तिहासिक	-6722
▁आयुक्त	-6723
▁कल्पना	-6724
▁खाना	-6725
▁employment	-6726
ING	-6727
▁scale	-6728
▁शख़्श	-6729
▁संकल्प	-6730
\\	-6731
iva	-6732
▁आकर्ष	-6733
▁सुंदर	-6734
▁getting	-6735
▁ris	-6736
▁felt	-6737
▁पत्त	-6738
▁उद	-6739
▁anal	-6740
▁argu	-6741
ंघ	-6742
▁फॉ	-6743
▁knew	-6744
▁ब्रा	-6745
▁बढ़कर	-6746
osition	-6747
▁अनुमो	-6748
▁female	-6749
▁खेती	-6750
▁भेजे	-6751
▁Punjab	-6752
▁wanted	-6753
▁फा	-6754
▁commer	-6755
▁हिस्से	-6756
▁व्यवसाय	-6757
▁addition	-6758
7,	-6759
नांक	-6760
▁running	-6761
▁version	-6762
▁मिलती	-6763
▁parties	-6764
दिन	-6765
lt	-6766
▁virt	-6767
▁warm	-6768
▁क्रा	-6769
▁कितने	-6770
ules	-6771
▁beaut	-6772
▁Therefore	-6773
शब्द	-6774
▁plus	-6775
▁swe	-6776
पान	-6777
▁मौसम	-6778
वट	-6779
▁कथा	-6780
▁pack	-6781
▁houses	-6782
▁उत्स	-6783
▁learning	-6784
धीन	-6785
लाल	-6786
▁fixed	-6787
uls	-6788
▁remove	-6789
▁verses	-6790
▁Resurrection	-6791
body	-6792
TP	-6793
▁ढूं	-6794
▁मानसिक	-6795
road	-6796
▁खुशी	-6797
ze	-6798
▁Sch	-6799
▁माबूद	-6800
▁formed	-6801
rick	-6802
▁poll	-6803
▁collect	-6804
▁भलाई	-6805
▁लगाने	-6806
ulations	-6807
etail	-6808
isement	-6809
▁पुराने	-6810
cember	-6811
▁प्रजा	-6812
न्‍	-6813
बारा	-6814
▁वितरण	-6815
▁परियोजनाओं	-6816
▁cy	-6817
▁Utt	-6818
▁Search	-6819
्वे	-6820
▁बू	-6821
▁Prof	-6822
▁sil	-6823
▁संबो	-6824
▁engine	-6825
▁option	-6826
poration	-6827
▁कार्यक्रमों	-6828
set	-6829
▁born	-6830
▁ज़रुर	-6831
▁assign	-6832
दु	-6833
▁आयोजन	-6834
▁क्षति	-6835
view	-6836
ियार	-6837
▁aspect	-6838
▁तिथि	-6839
Ind	-6840
▁शुरुआ	-6841
ायक	-6842
▁छुट	-6843
▁प्रार्थ	-6844
क्ट्र	-6845
▁aw	-6846
▁mentioned	-6847
▁Why	-6848
▁Trib	-6849
▁{0}	-6850
▁दूध	-6851
पै	-6852
▁tri	-6853
▁नेतृत्व	-6854
▁दस्तावेज	-6855
▁contro	-6856
▁generally	-6857
AB	-6858
▁धो	-6859
▁Kal	-6860
ृंखला	-6861
रार	-6862
▁Ay	-6863
▁जून	-6864
▁1961-2018	-6865
▁hus	-6866
istered	-6867
▁systems	-6868
cer	-6869
चीत	-6870
▁चलो	-6871
Allah	-6872
▁बदलें	-6873
▁जायेगा	-6874
▁गणराज्य	-6875
▁जानी	-6876
▁पंचा	-6877
▁produced	-6878
क्षेप	-6879
▁Enter	-6880
ूर्ति	-6881
▁forces	-6882
rant	-6883
▁चै	-6884
▁मनो	-6885
▁एवोल्यूशन	-6886
▁दोस्त	-6887
▁Cur	-6888
▁कदा	-6889
▁white	-6890
▁विवाद	-6891
▁आइ	-6892
▁धीरे	-6893
▁ब्रह	-6894
▁न्यून	-6895
▁द्र	-6896
▁उसपर	-6897
▁सप्ताह	-6898
▁usually	-6899
▁destroyed	-6900
जू	-6901
oting	-6902
▁plants	-6903
▁बोझ	-6904
लम	-6905
अलग	-6906
▁Dev	-6907
atures	-6908
वान्वेष	-6909
rim	-6910
▁Ved	-6911
▁wise	-6912
▁Chair	-6913
▁ideas	-6914
▁responsibility	-6915
oor	-6916
▁Pri	-6917
▁URL	-6918
where	-6919
▁Today	-6920
▁190	-6921
▁pie	-6922
▁अल्प	-6923
▁novel	-6924
▁sight	-6925
श्म	-6926
porary	-6927
▁limit	-6928
▁ज़ुल्म	-6929
▁;	-6930
वित्र	-6931
▁sold	-6932
▁शत्र	-6933
▁मुद्द	-6934
▁हस्त	-6935
ctober	-6936
▁कितनी	-6937
▁हिंदू	-6938
▁cove	-6939
▁कुफ्	-6940
ाले	-6941
क्षी	-6942
▁immediately	-6943
णु	-6944
▁इत्यादि	-6945
▁practice	-6946
ूबर	-6947
▁sex	-6948
oured	-6949
▁प्ले	-6950
oved	-6951
ength	-6952
▁उड़	-6953
वर्तन	-6954
▁tried	-6955
▁दयाल	-6956
▁यूनि	-6957
▁prosper	-6958
▁associated	-6959
▁2,	-6960
▁निरा	-6961
-19	-6962
त्मिक	-6963
▁Supreme	-6964
लील	-6965
▁ID	-6966
▁note	-6967
▁symb	-6968
वक	-6969
▁mand	-6970
दुनिया	-6971
▁शून्य	-6972
▁अभियान	-6973
▁अनुसरण	-6974
▁उपन्यास	-6975
्यार	-6976
▁units	-6977
▁base	-6978
▁क़सम	-6979
▁कराने	-6980
▁generation	-6981
▁कोड	-6982
▁ख़र्च	-6983
▁wishes	-6984
▁According	-6985
▁directory	-6986
यम	-6987
▁Tem	-6988
▁animals	-6989
▁milit	-6990
▁काफ़िर	-6991
छा	-6992
ियल	-6993
▁safe	-6994
▁निभा	-6995
▁निर्देशिका	-6996
िक़	-6997
▁मूल्यांकन	-6998
▁तट	-6999
▁Program	-7000
▁presence	-7001
ogle	-7002
▁5.	-7003
▁जुड़े	-7004
▁painful	-7005
▁continued	-7006
▁Kashmir	-7007
▁उत्कृष्ट	-7008
ero	-7009
फ्र	-7010
umbai	-7011
▁Legisl	-7012
▁खुले	-7013
text	-7014
▁तकली	-7015
▁statement	-7016
▁ON	-7017
▁मध	-7018
मंडल	-7019
▁आँख	-7020
▁आउट	-7021
▁मुला	-7022
▁dream	-7023
▁active	-7024
▁award	-7025
ंता	-7026
▁plug	-7027
▁blind	-7028
▁प्रार्थना	-7029
शक्ति	-7030
▁पत्नी	-7031
fect	-7032
▁लम्	-7033
▁Just	-7034
▁पर्यटन	-7035
पादन	-7036
▁सुख	-7037
णिज्य	-7038
▁अंतरण	-7039
▁opportunities	-7040
▁बजे	-7041
▁Fund	-7042
▁Mark	-7043
▁stor	-7044
▁बनाते	-7045
ofindia	-7046
▁Conf	-7047
ching	-7048
▁पराम	-7049
▁होनी	-7050
▁प्रयोजन	-7051
▁संस्थाओं	-7052
▁banks	-7053
5,	-7054
right	-7055
▁पट्टी	-7056
president	-7057
न्दगी	-7058
▁शुद्ध	-7059
▁Asse	-7060
▁संगण	-7061
▁pict	-7062
▁American	-7063
मीटर	-7064
गण	-7065
▁आनंद	-7066
▁कमांड	-7067
▁poetry	-7068
▁regarding	-7069
▁Pat	-7070
▁fest	-7071
▁बातचीत	-7072
rep	-7073
▁serious	-7074
▁Any	-7075
▁अस्तित्व	-7076
sc	-7077
release	-7078
▁Islamic	-7079
▁correct	-7080
presidentofindia	-7081
omen	-7082
म्मद	-7083
्याग	-7084
िकाना	-7085
▁feet	-7086
▁famous	-7087
▁कर्मचारी	-7088
▁please	-7089
▁विशेषता	-7090
▁गुरु	-7091
▁32	-7092
▁forgiveness	-7093
▁फूल	-7094
▁desp	-7095
▁Yet	-7096
▁डरते	-7097
etic	-7098
▁bow	-7099
क़यामत	-7100
▁cross	-7101
▁anyone	-7102
▁imag	-7103
▁आस्ति	-7104
▁numbers	-7105
▁ऐतिहासिक	-7106
ुप	-7107
▁हद	-7108
▁मिटाएँ	-7109
▁industries	-7110
श्मीर	-7111
▁बेटे	-7112
▁नवान्वेष	-7113
▁revelations	-7114
▁companies	-7115
▁Explanation	-7116
EM	-7117
▁fold	-7118
▁तेरे	-7119
detail	-7120
ovember	-7121
AD	-7122
घाटन	-7123
▁इजरायल	-7124
▁अत्यधिक	-7125
▁प्रेरित	-7126
▁contains	-7127
▁includes	-7128
▁traditional	-7129
▁विद्यार्थियों	-7130
cend	-7131
▁software	-7132
धीश	-7133
rows	-7134
▁पंचांग	-7135
▁medical	-7136
रक	-7137
▁फ़ॉ	-7138
▁walk	-7139
▁Provided	-7140
www	-7141
asa	-7142
▁Sri	-7143
▁max	-7144
▁obl	-7145
▁विद्युत	-7146
ंटी	-7147
arily	-7148
▁concept	-7149
▁particularly	-7150
ूक	-7151
▁War	-7152
▁gold	-7153
▁गंगा	-7154
▁purch	-7155
miss	-7156
▁greet	-7157
adi	-7158
मानी	-7159
▁conce	-7160
▁insect	-7161
▁workers	-7162
▁fra	-7163
▁लक्षण	-7164
▁निशानी	-7165
▁मान्यता	-7166
क्सी	-7167
▁साब	-7168
▁आध्या	-7169
ओगे	-7170
▁गुप्त	-7171
▁assistance	-7172
9,	-7173
▁Wise	-7174
▁मामला	-7175
▁legisl	-7176
▁increasing	-7177
▁इकाई	-7178
▁उदार	-7179
▁circum	-7180
्ठा	-7181
▁code	-7182
▁बुराई	-7183
ोम	-7184
▁गैस	-7185
▁tradition	-7186
फ़र	-7187
ties	-7188
▁प्रारूप	-7189
▁Only	-7190
वीय	-7191
▁IT	-7192
▁तुर	-7193
मान्य	-7194
▁शीर्षक	-7195
▁Wind	-7196
▁मानक	-7197
▁green	-7198
ae	-7199
▁Hy	-7200
▁Shah	-7201
▁शुक्र	-7202
▁स्क्रीन	-7203
▁Mo	-7204
adise	-7205
▁former	-7206
▁supply	-7207
▁fully	-7208
▁मुक़ाब	-7209
▁Address	-7210
▁तेज	-7211
▁बिक्री	-7212
▁संबंधों	-7213
परिक	-7214
▁विवे	-7215
वां	-7216
aksh	-7217
ुस	-7218
▁इकट	-7219
▁आयतें	-7220
▁normal	-7221
▁देखभाल	-7222
ipur	-7223
▁साधन	-7224
राई	-7225
्ता	-7226
▁कक्ष	-7227
▁सौंप	-7228
िश्तों	-7229
▁granted	-7230
▁दुआ	-7231
SL	-7232
▁चारों	-7233
▁बैंकों	-7234
1.	-7235
्वर	-7236
IV	-7237
iter	-7238
▁Red	-7239
▁petition	-7240
▁relevant	-7241
▁बाह	-7242
▁लाया	-7243
▁Start	-7244
▁Tag	-7245
▁फसल	-7246
vious	-7247
ply	-7248
▁Ty	-7249
iers	-7250
▁काव्य	-7251
▁supported	-7252
▁सुबह	-7253
लोग	-7254
▁recommend	-7255
▁successful	-7256
CH	-7257
▁दिला	-7258
▁वादा	-7259
▁select	-7260
▁attempt	-7261
ids	-7262
aches	-7263
▁autom	-7264
▁स्तंभ	-7265
▁format	-7266
▁session	-7267
top	-7268
▁severe	-7269
▁बुनियादी	-7270
▁प्रतिक्रिया	-7271
▁खिलाफ	-7272
▁वाणिज्य	-7273
▁ईमानदारों	-7274
▁accordance	-7275
iet	-7276
▁किसान	-7277
र्ज	-7278
▁CD	-7279
▁इरा	-7280
cutta	-7281
▁प्रोट	-7282
▁moon	-7283
▁पाकिस्तान	-7284
िनी	-7285
▁मछ	-7286
▁Message	-7287
▁limited	-7288
▁प्रभुत्व	-7289
▁scientific	-7290
▁laid	-7291
▁ख़ास	-7292
ternet	-7293
▁लोकप्रिय	-7294
ुमा	-7295
▁टिप	-7296
▁नष्ट	-7297
▁Last	-7298
▁Create	-7299
▁फिल्म	-7300
iling	-7301
ateral	-7302
▁स्थिर	-7303
urt	-7304
▁फ्ल	-7305
icial	-7306
▁team	-7307
▁विरा	-7308
▁निदेशक	-7309
▁विशेषज्ञ	-7310
▁collection	-7311
▁गृह	-7312
▁छूट	-7313
▁मंच	-7314
▁perhaps	-7315
▁transport	-7316
करी	-7317
िक्स	-7318
▁sons	-7319
▁कहता	-7320
▁मानो	-7321
▁spend	-7322
▁हराम	-7323
▁contribution	-7324
ॉकि	-7325
▁करार	-7326
▁Uttar	-7327
▁types	-7328
▁ठिकाना	-7329
आन	-7330
जोर	-7331
▁ago	-7332
izing	-7333
▁adop	-7334
▁police	-7335
▁प्रचार	-7336
rid	-7337
▁आठ	-7338
मार्	-7339
▁गरीब	-7340
संख्या	-7341
▁minister	-7342
लेज	-7343
▁चेह	-7344
▁कुशल	-7345
▁स्थल	-7346
ptember	-7347
ini	-7348
▁Mal	-7349
मात्र	-7350
▁दिनांक	-7351
▁respond	-7352
rav	-7353
asth	-7354
▁broad	-7355
▁worth	-7356
▁लॉग	-7357
▁Truth	-7358
▁final	-7359
▁moment	-7360
▁लोकतंत्र	-7361
▁Tw	-7362
▁समी	-7363
▁repe	-7364
▁किरा	-7365
▁ग़रज़	-7366
▁पुत्र	-7367
▁expenditure	-7368
▁dial	-7369
▁कौशल	-7370
▁serve	-7371
▁भाषण	-7372
▁स्थानों	-7373
▁Tur	-7374
▁apost	-7375
▁Calcutta	-7376
▁agriculture	-7377
▁परहे	-7378
▁distin	-7379
▁फ़ैसला	-7380
▁January	-7381
▁benefits	-7382
lied	-7383
▁target	-7384
▁HT	-7385
▁गोप	-7386
▁विषयों	-7387
▁घरे	-7388
▁husband	-7389
क्षिक	-7390
▁memory	-7391
In	-7392
RI	-7393
▁inj	-7394
▁अक्ष	-7395
iverse	-7396
▁समस्त	-7397
▁consist	-7398
ानु	-7399
oted	-7400
▁माइ	-7401
▁prin	-7402
ribute	-7403
▁Which	-7404
▁ख्याल	-7405
खिम	-7406
▁announ	-7407
itect	-7408
▁सवाल	-7409
▁रास्ता	-7410
▁लगातार	-7411
ighty	-7412
▁सामर्थ	-7413
▁परहेज़	-7414
cast	-7415
क्रिय	-7416
ellect	-7417
▁पहाड़	-7418
▁उपयोक्ता	-7419
▁आध्यात्मिक	-7420
तुम्ह	-7421
▁expression	-7422
▁आख	-7423
▁Adv	-7424
क्यों	-7425
▁इतने	-7426
▁बरसा	-7427
▁directly	-7428
verse	-7429
▁बनने	-7430
▁सीधा	-7431
▁Tamil	-7432
▁अर्थात्	-7433
aug	-7434
▁सेवाएं	-7435
▁advance	-7436
▁jo	-7437
amental	-7438
▁अद्यतन	-7439
▁अमेरिक	-7440
▁film	-7441
▁Pharaoh	-7442
▁mountains	-7443
ैसे	-7444
uman	-7445
▁कृत	-7446
▁Bang	-7447
▁quick	-7448
▁न्यूनतम	-7449
avi	-7450
apter	-7451
▁strateg	-7452
▁administration	-7453
equ	-7454
कालिक	-7455
▁sufficient	-7456
ole	-7457
▁Lok	-7458
▁नाट	-7459
▁पढ़ने	-7460
▁assets	-7461
▁Ob	-7462
▁सभ	-7463
▁लेन	-7464
▁challeng	-7465
▁प्रोत्साहन	-7466
▁रद्द	-7467
▁ग्रंथ	-7468
dden	-7469
▁अदा	-7470
▁मिश्र	-7471
▁अभिप्रे	-7472
जात	-7473
भेद	-7474
▁cities	-7475
▁attract	-7476
▁changed	-7477
वर्ड	-7478
ays	-7479
▁लु	-7480
▁Sah	-7481
▁medic	-7482
▁looking	-7483
र्वा	-7484
▁(4)	-7485
▁संगठ	-7486
▁villages	-7487
▁Thou	-7488
▁असमर्थ	-7489
▁covered	-7490
▁२००	-7491
▁sacr	-7492
▁Folder	-7493
▁परामर्श	-7494
▁सुल	-7495
ugust	-7496
▁gods	-7497
▁उम्र	-7498
▁दूरी	-7499
▁इंजीन	-7500
▁थोड़ा	-7501
▁middle	-7502
▁पवित्र	-7503
▁पूजा	-7504
▁paper	-7505
▁relationship	-7506
hent	-7507
▁आग्रह	-7508
▁स्त्रियों	-7509
▁नहर	-7510
mp	-7511
विल	-7512
▁साइ	-7513
▁प्रायः	-7514
माने	-7515
▁discip	-7516
▁गुमराही	-7517
▁appropri	-7518
डि	-7519
▁नजर	-7520
▁विरो	-7521
▁separate	-7522
▁विजय	-7523
▁denied	-7524
▁opinion	-7525
▁measures	-7526
▁Mumbai	-7527
▁जहा	-7528
▁phot	-7529
▁संसाधनों	-7530
hab	-7531
icit	-7532
शास्त	-7533
▁travel	-7534
▁forgive	-7535
▁मेहरबान	-7536
obile	-7537
pense	-7538
▁Organ	-7539
▁Port	-7540
▁पारित	-7541
▁relation	-7542
ishn	-7543
व्या	-7544
▁2017	-7545
▁drug	-7546
▁male	-7547
▁कठिना	-7548
inite	-7549
▁2015	-7550
▁laws	-7551
▁hours	-7552
▁एकत्र	-7553
▁गवाही	-7554
▁विनियम	-7555
▁मंड	-7556
▁आंतरिक	-7557
कड़ी	-7558
▁attention	-7559
OP	-7560
▁मज़ा	-7561
ालत	-7562
▁नेहर	-7563
स्तियों	-7564
▁अमरी	-7565
▁speed	-7566
चलित	-7567
▁मिन	-7568
▁अन्तर्	-7569
▁नागरिकों	-7570
▁तभी	-7571
▁2008	-7572
▁inside	-7573
▁repent	-7574
3,	-7575
▁अज	-7576
alty	-7577
▁बेच	-7578
▁उतार	-7579
▁amend	-7580
▁घरेलू	-7581
order	-7582
▁प्रदू	-7583
▁propos	-7584
▁standard	-7585
▁Management	-7586
has	-7587
▁steps	-7588
▁weight	-7589
▁AND	-7590
▁occup	-7591
▁विज्ञ	-7592
ूसु	-7593
▁Bab	-7594
▁ध्वनि	-7595
▁Abraham	-7596
▁calc	-7597
▁promised	-7598
▁महत्त्वपूर्ण	-7599
ालिब	-7600
▁इले	-7601
▁card	-7602
12	-7603
▁हथ	-7604
▁Its	-7605
▁Tax	-7606
▁eye	-7607
▁एका	-7608
▁शाह	-7609
▁faces	-7610
▁sides	-7611
▁भागों	-7612
▁transgress	-7613
▁तीव्र	-7614
▁वृक्ष	-7615
osis	-7616
▁डाउन	-7617
▁script	-7618
▁Children	-7619
▁permission	-7620
▁cooperation	-7621
▁तरीका	-7622
▁मीडिया	-7623
कें	-7624
▁विधे	-7625
▁मुंबई	-7626
रणा	-7627
▁इंग	-7628
▁गीत	-7629
▁fruit	-7630
▁समन्व	-7631
▁Messengers	-7632
from	-7633
▁largest	-7634
ateful	-7635
▁देखकर	-7636
▁opened	-7637
MS	-7638
यू	-7639
▁आज़	-7640
▁highest	-7641
शे	-7642
▁बीज	-7643
▁range	-7644
▁dy	-7645
▁बाँ	-7646
▁officers	-7647
hru	-7648
iment	-7649
▁शुरुआत	-7650
कीम	-7651
▁माप	-7652
▁qual	-7653
▁निपट	-7654
▁रुपए	-7655
oo	-7656
लाद	-7657
▁straight	-7658
▁Forgiving	-7659
▁beautiful	-7660
▁देवी	-7661
sp	-7662
▁Bas	-7663
▁proof	-7664
▁जाएंगे	-7665
▁गल	-7666
िक्र	-7667
It	-7668
▁आदम	-7669
▁milk	-7670
▁Inst	-7671
▁जोखिम	-7672
▁हालॉकि	-7673
णों	-7674
ulpt	-7675
▁Ker	-7676
▁pred	-7677
क़ी	-7678
▁game	-7679
▁युक्त	-7680
▁सर्वे	-7681
▁wills	-7682
▁भागीदारी	-7683
देन	-7684
लाभ	-7685
▁foot	-7686
▁आपूर्ति	-7687
add	-7688
▁esc	-7689
▁length	-7690
OS	-7691
िकल	-7692
▁cam	-7693
▁Copy	-7694
ken	-7695
▁मोमि	-7696
▁block	-7697
▁उद्घाटन	-7698
▁ऑनलाइन	-7699
▁arrange	-7700
▁अभिप्रेत	-7701
hra	-7702
▁San	-7703
▁longer	-7704
▁threat	-7705
▁दयावान	-7706
▁pattern	-7707
yan	-7708
ratic	-7709
भाँति	-7710
▁पूछा	-7711
▁संवर्	-7712
▁stream	-7713
▁twenty	-7714
▁release	-7715
OL	-7716
▁रास्ते	-7717
▁chastisement	-7718
▁परिस्थितियों	-7719
नल	-7720
inent	-7721
▁जल्द	-7722
▁protection	-7723
तल	-7724
▁upd	-7725
▁ख़ुद	-7726
▁भारती	-7727
▁extent	-7728
apan	-7729
▁dram	-7730
▁prot	-7731
▁calendar	-7732
▁कोल	-7733
▁ढूंढ	-7734
▁संचालन	-7735
▁Western	-7736
ज़त	-7737
▁polic	-7738
▁नृत्य	-7739
▁भाषाओं	-7740
▁सर्वोच्च	-7741
▁export	-7742
▁विश्लेषण	-7743
▁connected	-7744
▁taste	-7745
atha	-7746
▁pure	-7747
▁shows	-7748
▁documents	-7749
▁तमाम	-7750
▁performance	-7751
▁joint	-7752
▁someone	-7753
▁Sik	-7754
▁अका	-7755
▁corru	-7756
▁आसानी	-7757
▁academ	-7758
दीय	-7759
▁pan	-7760
▁Form	-7761
▁north	-7762
▁सहकारी	-7763
▁तुझे	-7764
▁बाबत	-7765
▁बदलाव	-7766
▁गुजरात	-7767
UT	-7768
ev	-7769
बन्ध	-7770
board	-7771
▁nations	-7772
arer	-7773
▁Jew	-7774
▁ज्ञापन	-7775
▁दृढ़	-7776
▁deemed	-7777
▁played	-7778
विज्ञान	-7779
▁दूसरों	-7780
▁resident	-7781
शनल	-7782
▁enemy	-7783
▁mechan	-7784
▁90	-7785
सायन	-7786
▁लंबा	-7787
▁सिवाय	-7788
▁appeal	-7789
6,	-7790
icip	-7791
▁December	-7792
▁साम्राज्य	-7793
▁नज़र	-7794
▁लड़के	-7795
▁राज्यपाल	-7796
My	-7797
इश	-7798
▁fre	-7799
▁Char	-7800
▁June	-7801
▁करीब	-7802
▁config	-7803
▁implementation	-7804
डु	-7805
▁गठन	-7806
▁chief	-7807
▁Import	-7808
▁entered	-7809
▁completed	-7810
under	-7811
▁tool	-7812
▁Inter	-7813
▁पुस्तिका	-7814
PS	-7815
▁II	-7816
▁items	-7817
▁स्वतः	-7818
▁mental	-7819
istration	-7820
▁included	-7821
oga	-7822
▁ख़ूब	-7823
▁execut	-7824
▁स्मृति	-7825
▁सामर्थ्य	-7826
▁मई	-7827
▁दयालुता	-7828
▁शिश	-7829
ously	-7830
▁बोले	-7831
▁educational	-7832
्रांस	-7833
▁अगस्त	-7834
▁violence	-7835
▁Well	-7836
leg	-7837
fall	-7838
▁hosp	-7839
▁rupe	-7840
▁sins	-7841
▁प्रि	-7842
▁contain	-7843
4,	-7844
And	-7845
▁पॉ	-7846
▁chann	-7847
▁somet	-7848
▁PM	-7849
▁कानूनी	-7850
ड़ने	-7851
▁Ann	-7852
▁Vis	-7853
▁balance	-7854
▁standing	-7855
▁intellect	-7856
aya	-7857
वियों	-7858
▁rail	-7859
▁height	-7860
▁complex	-7861
▁leading	-7862
▁hyp	-7863
▁2002	-7864
▁लोगो	-7865
▁काफिर	-7866
▁उपयोगी	-7867
भाग्य	-7868
▁दीर्घ	-7869
▁प्रका	-7870
▁Bharat	-7871
महिम	-7872
▁Text	-7873
▁लड़ाई	-7874
▁construction	-7875
hem	-7876
▁सदा	-7877
▁centre	-7878
िस्ट	-7879
▁देखता	-7880
▁मीटर	-7881
▁न्यायाधीश	-7882
pty	-7883
▁Time	-7884
▁घोषित	-7885
▁exceed	-7886
▁knowing	-7887
▁अधिकारों	-7888
▁निर्वाचन	-7889
▁तमिल	-7890
▁doers	-7891
hens	-7892
omin	-7893
क्षीय	-7894
▁offe	-7895
▁फैसला	-7896
ography	-7897
▁sudden	-7898
▁Krishna	-7899
▁दस्तावेज़	-7900
म्स	-7901
▁रजि	-7902
▁लाइ	-7903
▁belief	-7904
न्दी	-7905
▁पढ़ा	-7906
▁किनारे	-7907
▁profess	-7908
▁saved	-7909
▁मैदान	-7910
▁()	-7911
pper	-7912
▁furn	-7913
▁तथ्य	-7914
▁advice	-7915
▁otherwise	-7916
ॉक	-7917
शाह	-7918
▁funds	-7919
ferences	-7920
▁struggle	-7921
द्री	-7922
कर्ताओं	-7923
▁संबोधित	-7924
▁Bill	-7925
▁जरूर	-7926
▁useful	-7927
ilateral	-7928
▁watch	-7929
नन	-7930
ौल	-7931
▁मां	-7932
▁द्वीप	-7933
▁convey	-7934
▁Gujarat	-7935
▁species	-7936
▁औष	-7937
▁Post	-7938
▁कॉन्	-7939
ifying	-7940
▁वाद्य	-7941
▁काग	-7942
▁पशु	-7943
▁south	-7944
▁democracy	-7945
▁प्राथमिकता	-7946
▁आश्च	-7947
▁चेतना	-7948
ीनी	-7949
▁Ah	-7950
▁कलक	-7951
▁जितना	-7952
▁emph	-7953
▁rank	-7954
▁चलने	-7955
▁अज्ञात	-7956
utes	-7957
He	-7958
asc	-7959
शेष	-7960
▁util	-7961
▁रीति	-7962
▁ग़ालिब	-7963
▁Agricult	-7964
▁नक़	-7965
▁फोन	-7966
▁वैध	-7967
▁ton	-7968
धित्व	-7969
pir	-7970
▁छह	-7971
rene	-7972
▁115	-7973
▁labour	-7974
▁विन्यास	-7975
xy	-7976
वंश	-7977
▁Home	-7978
▁ज़ाह	-7979
▁Google	-7980
▁Policy	-7981
▁apprec	-7982
▁sister	-7983
▁सूर	-7984
▁मुना	-7985
▁Assist	-7986
▁journey	-7987
pted	-7988
फारिश	-7989
भाषित	-7990
▁dwell	-7991
gy	-7992
▁नु	-7993
संगत	-7994
icated	-7995
▁समृद्ध	-7996
▁उत्पादों	-7997
▁लिखी	-7998
▁ready	-7999
▁करेगी	-8000
▁हिंदी	-8001
:-	-8002
घात	-8003
फ़ा	-8004
▁focus	-8005
▁Indians	-8006
आप	-8007
िव	-8008
▁गुज़र	-8009
दत्त	-8010
▁कर्त	-8011
▁Pra	-8012
▁results	-8013
ula	-8014
मिन	-8015
▁cry	-8016
▁संवाद	-8017
गोल	-8018
▁Dh	-8019
▁First	-8020
ंदी	-8021
यदि	-8022
▁operations	-8023
ऊँ	-8024
rate	-8025
▁Aud	-8026
▁Image	-8027
▁महामहिम	-8028
दित	-8029
erous	-8030
▁जटिल	-8031
▁minus	-8032
▁आक्रमण	-8033
pro	-8034
परीत	-8035
▁ख्वाह	-8036
षक	-8037
▁एकल	-8038
tered	-8039
▁Langu	-8040
▁अन्दर	-8041
▁उठाने	-8042
▁ST	-8043
ैर्य	-8044
▁यून	-8045
▁stock	-8046
▁बीमारी	-8047
▁Finance	-8048
▁pursu	-8049
▁उपबंधों	-8050
▁employees	-8051
▁तस	-8052
▁अनुरूप	-8053
▁क़ि	-8054
▁निरी	-8055
▁बजाय	-8056
▁frame	-8057
▁Unable	-8058
बाइल	-8059
▁संकट	-8060
▁जाओगे	-8061
▁functions	-8062
▁01	-8063
▁ताप	-8064
▁होंगी	-8065
▁Sal	-8066
▁dece	-8067
▁औरतों	-8068
▁नेहरू	-8069
▁stories	-8070
▁Inc	-8071
▁Pass	-8072
▁लाइन	-8073
▁drive	-8074
▁नैतिक	-8075
▁अनुरोध	-8076
▁परिणामस्वरूप	-8077
▁UN	-8078
▁Sol	-8079
▁खुला	-8080
▁named	-8081
▁सरदार	-8082
▁pleasure	-8083
र्रर	-8084
.2014	-8085
▁Back	-8086
▁Bomb	-8087
▁कृष्ण	-8088
▁recent	-8089
▁unique	-8090
onse	-8091
▁rise	-8092
▁विपरीत	-8093
▁imper	-8094
▁सिफारिश	-8095
▁तार	-8096
▁मौत	-8097
▁October	-8098
▁fathers	-8099
▁उतर	-8100
▁जंग	-8101
लोगों	-8102
▁बीमार	-8103
▁बुद्ध	-8104
▁अध्याय	-8105
▁located	-8106
▁circumst	-8107
▁झा	-8108
▁क़ा	-8109
rance	-8110
▁साबित	-8111
stituted	-8112
कारात्मक	-8113
Com	-8114
वली	-8115
athy	-8116
▁हिम	-8117
▁wood	-8118
▁grace	-8119
कालय	-8120
▁Law	-8121
ensive	-8122
If	-8123
वाना	-8124
enced	-8125
▁hour	-8126
▁आनन्द	-8127
▁प्रतिनिधित्व	-8128
▁hot	-8129
▁लेंगे	-8130
▁आश्चर्य	-8131
AM	-8132
box	-8133
▁cou	-8134
▁वचन	-8135
▁मैने	-8136
▁बन्दगी	-8137
▁domestic	-8138
▁मुक़ाबले	-8139
▁suc	-8140
▁site	-8141
ashtra	-8142
▁विद्यमान	-8143
▁commercial	-8144
▁significant	-8145
रस	-8146
मेन	-8147
▁tal	-8148
▁त्याग	-8149
▁सॉफ्ट	-8150
▁यक़ीनी	-8151
ask	-8152
▁चीन	-8153
▁Power	-8154
ंजन	-8155
▁heavy	-8156
▁पोर्ट	-8157
▁वर्षा	-8158
▁Script	-8159
▁territ	-8160
▁revolution	-8161
धक	-8162
ipt	-8163
osing	-8164
▁चक्र	-8165
▁पृथ्वी	-8166
▁कूटशब्द	-8167
▁क़ु	-8168
▁situ	-8169
▁एकता	-8170
▁समझौता	-8171
▁प्रकाशन	-8172
▁सरकारों	-8173
▁सर्वाधिक	-8174
ops	-8175
▁दवा	-8176
▁2012	-8177
▁चीज़ों	-8178
▁growing	-8179
▁schemes	-8180
्राफ	-8181
▁पलट	-8182
▁table	-8183
▁कितना	-8184
▁नूह	-8185
▁दरवा	-8186
▁आरम्भ	-8187
▁प्रतीत	-8188
फ़्र	-8189
▁एंड	-8190
▁पंजाब	-8191
▁प्रशंसा	-8192
▁mighty	-8193
▁secure	-8194
▁जनसंख्या	-8195
लेट	-8196
शासन	-8197
▁लौटा	-8198
▁प्रतिभा	-8199
What	-8200
▁Hist	-8201
▁फ़िर	-8202
▁जिनको	-8203
▁Ur	-8204
त्तम	-8205
▁शारी	-8206
atically	-8207
▁gardens	-8208
▁storage	-8209
▁consideration	-8210
0.	-8211
▁More	-8212
दरत	-8213
lication	-8214
raft	-8215
▁नेक	-8216
▁perman	-8217
▁Assembly	-8218
ET	-8219
बीर	-8220
uled	-8221
ighb	-8222
▁189	-8223
▁rock	-8224
▁दर्ज	-8225
▁apart	-8226
▁valid	-8227
▁भेद	-8228
▁अक्षम	-8229
▁सर्वेक्षण	-8230
You	-8231
▁हल्	-8232
ao	-8233
▁Science	-8234
prh	-8235
▁सिखा	-8236
▁आवाज़	-8237
▁प्रिय	-8238
▁जमीन	-8239
▁जाकर	-8240
▁facilit	-8241
▁marriage	-8242
▁1999	-8243
▁thir	-8244
▁समाप्ति	-8245
▁vac	-8246
▁करवा	-8247
▁खुली	-8248
▁stated	-8249
▁75	-8250
▁कोवि	-8251
▁वहीं	-8252
▁trees	-8253
▁Contact	-8254
▁डाले	-8255
▁Nehru	-8256
▁leaves	-8257
▁पहुँचे	-8258
▁पूर्वा	-8259
गढ़	-8260
वायु	-8261
▁परम	-8262
▁staff	-8263
▁Remove	-8264
▁उपक्रम	-8265
▁ज़िम्मे	-8266
ray	-8267
▁उठाए	-8268
▁adopted	-8269
जिस	-8270
roud	-8271
▁ब्ल	-8272
odies	-8273
▁join	-8274
▁अस्थ	-8275
▁SAW	-8276
ruary	-8277
त्कार	-8278
▁आज्ञा	-8279
▁आओ	-8280
▁188	-8281
▁mid	-8282
▁वैसे	-8283
▁अस्था	-8284
▁धैर्य	-8285
▁दशक	-8286
▁resol	-8287
▁पूर्वी	-8288
▁हैंः	-8289
iled	-8290
aters	-8291
▁राजनैतिक	-8292
itled	-8293
▁इन्कार	-8294
▁संगठनों	-8295
▁technical	-8296
inery	-8297
umber	-8298
▁उधार	-8299
▁पसन्द	-8300
▁Delete	-8301
▁मुझसे	-8302
▁Excell	-8303
▁प्राधिकारी	-8304
▁नबी	-8305
▁prec	-8306
ebruary	-8307
▁leader	-8308
▁committed	-8309
▁पाई	-8310
▁आवास	-8311
▁सच्चा	-8312
▁सशक्त	-8313
▁divided	-8314
▁contained	-8315
पथ	-8316
aker	-8317
lex	-8318
resp	-8319
▁दाह	-8320
▁temper	-8321
▁जय	-8322
▁टा	-8323
▁media	-8324
▁involved	-8325
iry	-8326
लीय	-8327
lands	-8328
▁पंजीकरण	-8329
▁Path	-8330
▁Office	-8331
ंठ	-8332
ora	-8333
▁gain	-8334
▁events	-8335
अर	-8336
▁powerful	-8337
cause	-8338
▁helped	-8339
ज़ल	-8340
▁entry	-8341
▁depart	-8342
▁अर्थात	-8343
▁engaged	-8344
▁उद्योगों	-8345
▁काफ़ी	-8346
▁Bombay	-8347
▁figure	-8348
▁Secretary	-8349
▁September	-8350
ूदी	-8351
osen	-8352
▁model	-8353
▁उत्सा	-8354
▁निकाय	-8355
▁temples	-8356
▁appropriate	-8357
▁शिकार	-8358
▁declared	-8359
▁ऑफ़	-8360
▁cells	-8361
▁पाते	-8362
▁साफ़	-8363
▁disob	-8364
▁symbol	-8365
▁प्रतीक्षा	-8366
▁कार्यान्वयन	-8367
प्रति	-8368
यो	-8369
ktop	-8370
▁portion	-8371
कभी	-8372
▁अत	-8373
▁2020	-8374
▁famil	-8375
▁consult	-8376
▁उपभोक्ता	-8377
वित	-8378
ष्‍	-8379
▁शहरी	-8380
▁exists	-8381
▁payable	-8382
▁शारीरिक	-8383
▁लिखित	-8384
▁प्रेरणा	-8385
adh	-8386
ष्टा	-8387
▁अहम	-8388
▁fields	-8389
प्ति	-8390
▁जागर	-8391
▁column	-8392
▁praise	-8393
▁अधिसूचना	-8394
▁पड़ी	-8395
▁सृजन	-8396
▁औसत	-8397
▁Head	-8398
▁किलो	-8399
▁चुने	-8400
▁sculpt	-8401
▁November	-8402
▁प्ल	-8403
▁मुश्	-8404
▁registered	-8405
ga	-8406
▁6.	-8407
▁मुद्र	-8408
▁consequ	-8409
▁Edit	-8410
▁निगर	-8411
▁निहित	-8412
fection	-8413
▁causes	-8414
▁questions	-8415
aran	-8416
ंडी	-8417
धों	-8418
▁धु	-8419
▁बाग	-8420
▁emphas	-8421
▁architect	-8422
अत	-8423
itch	-8424
▁मुद्दों	-8425
rust	-8426
▁promote	-8427
▁policies	-8428
अमत	-8429
▁amongst	-8430
▁thinking	-8431
▁Bus	-8432
▁won	-8433
▁Over	-8434
▁Pand	-8435
▁track	-8436
▁किस्म	-8437
▁divine	-8438
ications	-8439
▁military	-8440
1,	-8441
ps	-8442
ests	-8443
▁इलेक्ट्र	-8444
▁Nep	-8445
▁टीम	-8446
▁hearing	-8447
▁processing	-8448
इल	-8449
▁गौर	-8450
▁cloud	-8451
▁neighb	-8452
▁तल	-8453
▁सजा	-8454
ented	-8455
▁Nath	-8456
▁उठाया	-8457
▁fruits	-8458
▁officer	-8459
▁reading	-8460
▁reference	-8461
▁औलाद	-8462
▁prostr	-8463
▁नमू	-8464
▁email	-8465
▁सुभाष	-8466
▁सन्तान	-8467
▁extreme	-8468
▁developing	-8469
▁profit	-8470
▁review	-8471
▁पाठ्यक्रम	-8472
AC	-8473
ंगिक	-8474
▁डाय	-8475
▁withd	-8476
▁उच्चतम	-8477
▁सुविधाओं	-8478
▁टेली	-8479
▁तूने	-8480
▁परेश	-8481
▁यूसु	-8482
▁अमेरिकी	-8483
रात	-8484
▁Stand	-8485
▁शैक्षिक	-8486
सायिक	-8487
▁capt	-8488
ुस्तान	-8489
▁जिनसे	-8490
▁deduction	-8491
जब	-8492
श्रम	-8493
▁seed	-8494
▁animal	-8495
▁चुनौती	-8496
थे	-8497
्लो	-8498
ounty	-8499
▁shape	-8500
lly	-8501
pid	-8502
like	-8503
▁साथी	-8504
▁web	-8505
▁Enable	-8506
arma	-8507
cher	-8508
rehens	-8509
▁Satan	-8510
▁डाउनलोड	-8511
▁Po	-8512
rain	-8513
▁सहज	-8514
▁सिक्	-8515
पालिका	-8516
▁China	-8517
▁families	-8518
race	-8519
▁घटा	-8520
▁magn	-8521
▁lines	-8522
▁lived	-8523
स्तिष्क	-8524
▁shares	-8525
▁आंख	-8526
थी	-8527
▁तकनीक	-8528
▁Exchange	-8529
▁earn	-8530
▁मिनट	-8531
▁हत्या	-8532
▁images	-8533
▁परिवहन	-8534
समय	-8535
▁आबाद	-8536
-0	-8537
▁pil	-8538
▁मस्	-8539
▁external	-8540
चारिक	-8541
▁miss	-8542
▁घंटे	-8543
▁veget	-8544
▁प्रोत्साहित	-8545
ड़ते	-8546
▁सड़क	-8547
▁tid	-8548
▁summ	-8549
▁succeed	-8550
▁influence	-8551
कीन	-8552
▁आश	-8553
inet	-8554
▁जनजा	-8555
▁श्रम	-8556
▁श्रृंखला	-8557
▁फें	-8558
assion	-8559
Mu	-8560
▁Car	-8561
▁Nay	-8562
▁box	-8563
▁गणना	-8564
▁सेटिंग	-8565
sec	-8566
दास	-8567
▁नयी	-8568
▁seem	-8569
▁choose	-8570
▁आकर	-8571
▁देर	-8572
▁सराह	-8573
iences	-8574
▁पेंशन	-8575
▁expressed	-8576
संस्	-8577
▁gather	-8578
▁needed	-8579
▁sometimes	-8580
▁nuc	-8581
▁ईमानदार	-8582
ti	-8583
कुछ	-8584
▁AT	-8585
▁fit	-8586
▁incl	-8587
▁हमसे	-8588
▁refuge	-8589
▁square	-8590
▁messengers	-8591
▁gar	-8592
▁आना	-8593
▁पति	-8594
▁अगला	-8595
▁attach	-8596
▁circumstances	-8597
asons	-8598
क्ष्य	-8599
्यवाद	-8600
▁कहाँ	-8601
▁कार्यवाही	-8602
ेंज	-8603
शीलता	-8604
▁input	-8605
▁likely	-8606
▁छात्रों	-8607
▁standards	-8608
क़्त	-8609
▁छाप	-8610
▁Check	-8611
▁touch	-8612
▁interests	-8613
▁स्ना	-8614
▁जैव	-8615
▁सें	-8616
▁excl	-8617
▁seems	-8618
▁पूज्य	-8619
▁बिहार	-8620
▁अन्यथा	-8621
▁निगरानी	-8622
aging	-8623
▁desires	-8624
▁remained	-8625
aja	-8626
▁कब	-8627
▁response	-8628
▁क़ुरान	-8629
▁Paradise	-8630
uff	-8631
दंड	-8632
▁waste	-8633
तीत	-8634
▁समीक्षा	-8635
▁Description	-8636
ought	-8637
▁magic	-8638
▁रेलवे	-8639
▁ज़िन्दगी	-8640
enge	-8641
क़रीब	-8642
▁Unto	-8643
▁घड़ी	-8644
▁Gandhiji	-8645
▁परिवर्तित	-8646
▁Her	-8647
▁बहुते	-8648
▁expand	-8649
ESS	-8650
केट	-8651
shipp	-8652
▁dated	-8653
▁August	-8654
▁compon	-8655
ंदन	-8656
▁Bihar	-8657
▁dance	-8658
▁raise	-8659
▁बदलने	-8660
ression	-8661
▁terrorism	-8662
ंदु	-8663
▁wel	-8664
▁refers	-8665
र्ती	-8666
ैनिक	-8667
icate	-8668
▁pric	-8669
▁ignor	-8670
▁समर्पित	-8671
▁wo	-8672
▁आलो	-8673
गारों	-8674
▁ball	-8675
▁फिरऔन	-8676
▁master	-8677
▁remains	-8678
lies	-8679
▁कनेक्शन	-8680
▁संयंत्र	-8681
▁केरल	-8682
▁रहमत	-8683
▁extra	-8684
AG	-8685
न्ड	-8686
grat	-8687
▁truly	-8688
▁variety	-8689
▁location	-8690
टेन	-8691
▁सै	-8692
lying	-8693
ुक्ति	-8694
▁जिले	-8695
▁इंटरनेट	-8696
▁कलकत्ता	-8697
▁Kerala	-8698
▁विधेयक	-8699
न्द्रनाथ	-8700
▁consciousness	-8701
िड	-8702
▁taught	-8703
▁विरोधी	-8704
▁Comment	-8705
▁fill	-8706
▁लिंक	-8707
▁additional	-8708
▁constitution	-8709
टो	-8710
▁fish	-8711
▁quar	-8712
▁profession	-8713
reprene	-8714
▁मिलेगा	-8715
aur	-8716
nes	-8717
unk	-8718
llig	-8719
rated	-8720
▁interp	-8721
▁average	-8722
atma	-8723
ंपरिक	-8724
▁sort	-8725
▁नवीन	-8726
▁लगते	-8727
▁graph	-8728
▁स्मार	-8729
▁ज़ाहिर	-8730
▁rejected	-8731
ेरत	-8732
▁कहान	-8733
▁killed	-8734
▁extended	-8735
▁तस्वी	-8736
▁enable	-8737
▁महाराष्ट्र	-8738
▁Roy	-8739
▁इसको	-8740
▁धारण	-8741
▁trial	-8742
▁egg	-8743
▁शिखर	-8744
▁उत्तरा	-8745
चानक	-8746
▁अकबर	-8747
▁remark	-8748
Muhammad	-8749
▁worshipp	-8750
▁चालू	-8751
▁लाते	-8752
▁सचिव	-8753
▁Ear	-8754
▁नुक	-8755
▁नक़ल	-8756
▁Knowing	-8757
▁एड	-8758
▁elements	-8759
▁Web	-8760
▁calls	-8761
ading	-8762
olute	-8763
▁School	-8764
▁Nar	-8765
oming	-8766
ube	-8767
iance	-8768
▁mouth	-8769
▁Palest	-8770
▁Chairman	-8771
▁चो	-8772
▁sup	-8773
▁surface	-8774
usive	-8775
▁सुदृ	-8776
▁levels	-8777
▁अनुपात	-8778
▁Conference	-8779
▁3,	-8780
unal	-8781
▁सचे	-8782
▁Also	-8783
▁आसपास	-8784
▁समग्र	-8785
▁होम	-8786
▁रौशन	-8787
▁wives	-8788
▁chosen	-8789
DE	-8790
वधि	-8791
▁जेल	-8792
▁तथापि	-8793
▁मुक़र्रर	-8794
uous	-8795
्यूट	-8796
▁Ret	-8797
▁तिर	-8798
mical	-8799
मार्ग	-8800
▁Corporation	-8801
▁partnership	-8802
▁Att	-8803
▁saf	-8804
▁देय	-8805
icked	-8806
▁जरिए	-8807
▁trying	-8808
▁प्रारंभिक	-8809
▁आर्	-8810
uel	-8811
ंटर	-8812
▁Di	-8813
कारा	-8814
utions	-8815
▁proud	-8816
▁maintain	-8817
▁2019	-8818
▁lack	-8819
▁क़ाय	-8820
▁store	-8821
▁सूत्र	-8822
मियान	-8823
▁voice	-8824
asthan	-8825
▁print	-8826
▁Fil	-8827
▁perfect	-8828
▁पृष्ठभूमि	-8829
▁“”	-8830
lick	-8831
▁Germ	-8832
▁July	-8833
▁inaug	-8834
▁भेजें	-8835
▁मिसाल	-8836
▁सॉफ्टवेयर	-8837
aji	-8838
▁Inf	-8839
▁उपा	-8840
▁शहरों	-8841
▁advant	-8842
जल	-8843
▁गुफा	-8844
▁अचानक	-8845
▁evening	-8846
▁sectors	-8847
।-	-8848
”.	-8849
नाह	-8850
▁cash	-8851
▁poly	-8852
▁Great	-8853
▁Japan	-8854
▁distribution	-8855
ja	-8856
▁cop	-8857
▁शरीक	-8858
▁हवाई	-8859
▁earned	-8860
▁medium	-8861
▁श्रेष्ठ	-8862
▁whosoever	-8863
मेट	-8864
▁बग	-8865
▁”-	-8866
▁टैग	-8867
▁बटन	-8868
hered	-8869
▁इनका	-8870
▁plain	-8871
वण	-8872
{0}	-8873
ढ़ा	-8874
▁joy	-8875
▁skin	-8876
▁machine	-8877
▁मूल्यों	-8878
ाये	-8879
aign	-8880
▁सुझाव	-8881
▁series	-8882
▁जलवायु	-8883
isc	-8884
▁unf	-8885
iring	-8886
▁हार्	-8887
▁जुलाई	-8888
▁settle	-8889
anges	-8890
atter	-8891
erative	-8892
▁महात्मा	-8893
▁described	-8894
.%	-8895
▁कदापि	-8896
▁brings	-8897
ष्ठा	-8898
ड़ियों	-8899
▁निष्क्रिय	-8900
▁difference	-8901
▁IP	-8902
▁गोल	-8903
लैंड	-8904
▁गें	-8905
▁Inte	-8906
▁root	-8907
▁अभिय	-8908
▁avoid	-8909
▁500	-8910
uries	-8911
▁खींच	-8912
▁Buddh	-8913
▁विभाजन	-8914
▁36	-8915
▁कीट	-8916
चालित	-8917
▁Soci	-8918
▁dang	-8919
▁Turk	-8920
▁worked	-8921
▁प्रयत्न	-8922
▁distance	-8923
प्राप्त	-8924
ोबार	-8925
▁prem	-8926
▁मोबाइल	-8927
▁construct	-8928
पार	-8929
▁gets	-8930
▁quant	-8931
actions	-8932
▁larger	-8933
For	-8934
मतौर	-8935
▁मुश	-8936
▁शोध	-8937
▁reflect	-8938
▁अभिव्यक्ति	-8939
▁शौ	-8940
▁लंबे	-8941
▁रोकने	-8942
▁दरमियान	-8943
▁diss	-8944
▁crops	-8945
40	-8946
idy	-8947
मोह	-8948
▁7.	-8949
▁Det	-8950
▁Pan	-8951
▁Maharashtra	-8952
▁independence	-8953
ोजी	-8954
▁hell	-8955
▁mutual	-8956
▁output	-8957
▁प्राधिकरण	-8958
शुदा	-8959
▁risk	-8960
▁इसने	-8961
▁Elect	-8962
▁परमाण	-8963
भ्र	-8964
cript	-8965
▁Free	-8966
▁expected	-8967
▁मं	-8968
ंत्रिक	-8969
▁opening	-8970
▁observed	-8971
apt	-8972
ague	-8973
UN	-8974
रत	-8975
abh	-8976
गामी	-8977
विधि	-8978
▁नाथ	-8979
▁Bhag	-8980
▁सजदा	-8981
▁abroad	-8982
▁forget	-8983
ेय	-8984
ॉट	-8985
▁Som	-8986
▁unc	-8987
eties	-8988
▁died	-8989
▁cultiv	-8990
▁element	-8991
▁द्वितीय	-8992
▁Guru	-8993
ivered	-8994
▁ग्राहक	-8995
▁नेताओं	-8996
▁विश्वविद्यालयों	-8997
▁af	-8998
ियामत	-8999
▁घाटे	-9000
ousing	-9001
▁poems	-9002
▁cattle	-9003
▁associate	-9004
overy	-9005
▁करोगे	-9006
▁चिंता	-9007
▁teachers	-9008
▁applications	-9009
कां	-9010
नाश	-9011
▁निच	-9012
▁borrow	-9013
▁online	-9014
▁विशेषकर	-9015
एच	-9016
ायी	-9017
nded	-9018
▁सिल	-9019
ifice	-9020
▁इकट्ठा	-9021
▁पारंपरिक	-9022
▁objective	-9023
olid	-9024
▁Sum	-9025
aling	-9026
▁dust	-9027
▁मर्द	-9028
▁मांस	-9029
▁stead	-9030
▁योजनाओं	-9031
▁Pres	-9032
शास्त्र	-9033
▁रसूलों	-9034
▁clearly	-9035
▁brothers	-9036
6)	-9037
ocal	-9038
▁sleep	-9039
▁फ़ॉन्ट	-9040
▁युक्ति	-9041
▁truthful	-9042
म्मत	-9043
▁fine	-9044
▁पेड़	-9045
▁चलाने	-9046
▁looked	-9047
▁cat	-9048
▁sale	-9049
icense	-9050
▁ज्ञात	-9051
▁Had	-9052
क्रिप	-9053
▁Hindus	-9054
▁अनुदान	-9055
▁समर्थित	-9056
ception	-9057
▁पुरानी	-9058
▁launched	-9059
▁प्रतिनिधि	-9060
pped	-9061
▁शान	-9062
▁remem	-9063
▁tidings	-9064
▁friendly	-9065
▁क्षमाशील	-9066
ius	-9067
▁चुनौ	-9068
▁defined	-9069
▁मुलाकात	-9070
▁मुश्किल	-9071
▁association	-9072
Our	-9073
िकेट	-9074
ूर्ण	-9075
▁Madh	-9076
▁नुकसान	-9077
▁Mission	-9078
▁आकर्षित	-9079
▁ज़्यादा	-9080
▁determined	-9081
ught	-9082
▁साझा	-9083
▁annual	-9084
▁European	-9085
▁messenger	-9086
▁सफ	-9087
▁मौल	-9088
▁listen	-9089
▁Services	-9090
▁introduced	-9091
iny	-9092
ller	-9093
न्या	-9094
▁उक्त	-9095
▁hidden	-9096
द्वीप	-9097
▁screen	-9098
▁org	-9099
▁pill	-9100
▁कामना	-9101
▁राजनीति	-9102
▁exercise	-9103
▁context	-9104
▁कंपनियों	-9105
▁Nob	-9106
▁आराम	-9107
▁removed	-9108
▁independent	-9109
क्रो	-9110
▁आमतौर	-9111
▁अनक़रीब	-9112
▁characters	-9113
80	-9114
VD	-9115
ahar	-9116
onal	-9117
लिया	-9118
प्रदाय	-9119
▁दाखिल	-9120
▁wisdom	-9121
▁घटनाओं	-9122
▁जोड़ने	-9123
ंतरण	-9124
▁Men	-9125
▁rare	-9126
ठे	-9127
▁खान	-9128
▁Stat	-9129
▁fellow	-9130
▁honour	-9131
▁km	-9132
▁जर्म	-9133
▁कम्पनी	-9134
▁बिलकुल	-9135
▁नियंत्रित	-9136
▁GN	-9137
teen	-9138
बानी	-9139
▁देखे	-9140
▁deliver	-9141
▁majority	-9142
Is	-9143
▁संदेह	-9144
▁button	-9145
▁वाक़िफ	-9146
▁February	-9147
▁Emp	-9148
▁भंडारण	-9149
▁प्रविष्ट	-9150
▁नस्	-9151
eting	-9152
तावनी	-9153
▁अपमान	-9154
amet	-9155
▁Change	-9156
▁academic	-9157
▁लै	-9158
▁rupees	-9159
▁जड़	-9160
verty	-9161
▁Iran	-9162
istics	-9163
▁burden	-9164
▁remote	-9165
मै	-9166
▁लकड़ी	-9167
▁दिखाता	-9168
▁Because	-9169
क़ा	-9170
▁Gh	-9171
▁औप	-9172
▁vast	-9173
▁नंबर	-9174
ologies	-9175
▁सुदृढ़	-9176
ंसी	-9177
itis	-9178
▁glad	-9179
▁कराया	-9180
▁चन्द्र	-9181
▁Ke	-9182
▁safety	-9183
▁अवज्ञा	-9184
▁poverty	-9185
मण	-9186
▁इनकी	-9187
▁ईमेल	-9188
▁आमंत्र	-9189
▁convers	-9190
▁spent	-9191
▁Tagore	-9192
▁affairs	-9193
nel	-9194
साफ़	-9195
▁समित	-9196
▁throughout	-9197
Sh	-9198
▁hel	-9199
▁opt	-9200
▁grad	-9201
▁समावेश	-9202
▁literary	-9203
oms	-9204
▁Kum	-9205
भाविक	-9206
▁कमजोर	-9207
▁फरवरी	-9208
▁Network	-9209
▁maximum	-9210
▁station	-9211
मती	-9212
▁सब्र	-9213
▁Chandra	-9214
▁initial	-9215
▁प्रशासनिक	-9216
िटी	-9217
▁Did	-9218
▁नाग	-9219
▁beauty	-9220
▁उत्तरी	-9221
▁बख्शने	-9222
▁electric	-9223
▁तत्वदर्शी	-9224
ज्ज	-9225
▁आफ	-9226
कर्ष	-9227
▁songs	-9228
▁submit	-9229
▁procedure	-9230
दायी	-9231
आख़िर	-9232
▁मुद्	-9233
▁homes	-9234
▁नेअमत	-9235
▁संविदा	-9236
▁कुफ्फ़ार	-9237
▁मस्तिष्क	-9238
▁delivered	-9239
ysis	-9240
▁Nav	-9241
alted	-9242
▁army	-9243
▁पट्ट	-9244
▁मध्यम	-9245
▁easily	-9246
▁चेतावनी	-9247
▁ourselves	-9248
ुरान	-9249
ूंकि	-9250
▁Ant	-9251
ार्थी	-9252
▁impact	-9253
ux	-9254
ोटो	-9255
▁goal	-9256
▁दुखद	-9257
▁मुकद	-9258
▁surround	-9259
खो	-9260
apers	-9261
▁काला	-9262
▁ideal	-9263
oj	-9264
ARD	-9265
ॉल्ट	-9266
▁Sir	-9267
▁gas	-9268
▁संसदीय	-9269
▁ज़िन्दा	-9270
▁settings	-9271
▁trou	-9272
▁उपस्थिति	-9273
▁राजस्थान	-9274
▁45	-9275
ndra	-9276
▁सौर	-9277
▁आवाज	-9278
heduled	-9279
▁offered	-9280
▁studies	-9281
▁Khan	-9282
▁Rail	-9283
▁नहरें	-9284
▁philosophy	-9285
era	-9286
▁gains	-9287
▁breast	-9288
▁शक्तियों	-9289
न्दु	-9290
▁Mag	-9291
ग्रस्त	-9292
▁equip	-9293
▁संतुल	-9294
▁Division	-9295
▁चुना	-9296
▁contem	-9297
▁Display	-9298
ixt	-9299
नीन	-9300
▁Dem	-9301
▁unity	-9302
▁बढ़ती	-9303
▁disbelieved	-9304
▁mort	-9305
▁assigned	-9306
▁SH	-9307
enior	-9308
uties	-9309
▁Karn	-9310
▁कुफ़्र	-9311
▁2011	-9312
venant	-9313
ेंसी	-9314
▁See	-9315
▁सागर	-9316
▁Social	-9317
imal	-9318
▁moving	-9319
▁confidence	-9320
▁dim	-9321
▁मारे	-9322
▁empty	-9323
▁संपादक	-9324
▁department	-9325
▁विनिमय	-9326
ox	-9327
▁door	-9328
▁थोड़े	-9329
▁शत्रु	-9330
▁congrat	-9331
▁distingu	-9332
▁lad	-9333
▁सलाम	-9334
▁समझने	-9335
▁greatest	-9336
rone	-9337
chand	-9338
epend	-9339
abilities	-9340
▁Rama	-9341
▁heed	-9342
▁ढांचे	-9343
▁व्यावसायिक	-9344
ERS	-9345
atab	-9346
▁bed	-9347
▁flag	-9348
▁birds	-9349
▁fresh	-9350
▁Health	-9351
▁dialog	-9352
▁suffer	-9353
▁History	-9354
▁charges	-9355
▁अपेक्षित	-9356
10	-9357
ika	-9358
▁रण	-9359
▁ब्राह	-9360
▁कोशिका	-9361
▁Mahatma	-9362
ॉँ	-9363
gen	-9364
▁70	-9365
▁खड़ी	-9366
▁points	-9367
▁organisation	-9368
ese	-9369
▁आकृति	-9370
▁द्विप	-9371
▁सभ्यता	-9372
As	-9373
▁मुसी	-9374
नेवालो	-9375
▁griev	-9376
▁views	-9377
▁देखना	-9378
बीह	-9379
अज़ाब	-9380
▁soil	-9381
elines	-9382
▁बस्ती	-9383
▁authent	-9384
सोस	-9385
▁Ext	-9386
.2015	-9387
▁बहुम	-9388
▁साझे	-9389
▁फ़रमा	-9390
▁प्रभुत्वशाली	-9391
▁५	-9392
▁टिक	-9393
urate	-9394
▁शुरु	-9395
▁hospital	-9396
▁Both	-9397
ाइन	-9398
▁Prom	-9399
▁Default	-9400
▁appointment	-9401
▁dry	-9402
▁2003	-9403
▁दादा	-9404
▁चूंकि	-9405
▁seeking	-9406
▁District	-9407
▁approved	-9408
oph	-9409
▁185	-9410
▁Special	-9411
स्फ	-9412
सारिक	-9413
▁सबके	-9414
▁खोलने	-9415
▁enterpr	-9416
थान	-9417
माल	-9418
ंचित	-9419
▁lik	-9420
▁चली	-9421
पेक्ष	-9422
▁fert	-9423
▁भेंट	-9424
स्थापित	-9425
▁Environment	-9426
भावना	-9427
▁जानने	-9428
▁schools	-9429
▁initiatives	-9430
▁rapid	-9431
▁yield	-9432
osh	-9433
▁मृ	-9434
▁impl	-9435
▁नेकी	-9436
▁River	-9437
▁communication	-9438
घर	-9439
▁namely	-9440
▁MS	-9441
▁Ste	-9442
▁कड़ी	-9443
▁हटकर	-9444
▁Belie	-9445
una	-9446
▁नद	-9447
▁debt	-9448
▁रिया	-9449
▁ईमानवालों	-9450
ij	-9451
पह	-9452
▁shr	-9453
▁Data	-9454
▁inher	-9455
▁kinds	-9456
▁दोहरा	-9457
▁divide	-9458
▁jur	-9459
enses	-9460
▁परमाणु	-9461
▁hide	-9462
▁souls	-9463
▁मस्जि	-9464
CE	-9465
▁acts	-9466
▁Rajasthan	-9467
▁replied	-9468
▁articles	-9469
▁forbidden	-9470
Do	-9471
ronic	-9472
▁स्वाम	-9473
▁अन्ततः	-9474
▁सांसारिक	-9475
वेद	-9476
▁लिखे	-9477
▁Akbar	-9478
▁Second	-9479
▁गिरफ्त	-9480
▁विरासत	-9481
▁innovation	-9482
ातु	-9483
▁blessings	-9484
▁कही	-9485
▁मिट	-9486
▁holding	-9487
▁wherein	-9488
25	-9489
dule	-9490
▁महल	-9491
▁चीनी	-9492
▁रहेगी	-9493
osphere	-9494
▁kingdom	-9495
▁reduced	-9496
2)	-9497
▁आह	-9498
aped	-9499
▁निवास	-9500
▁mainly	-9501
ghan	-9502
▁oath	-9503
▁habit	-9504
▁happen	-9505
▁संबद्ध	-9506
▁प्रतिबद्ध	-9507
▁Bad	-9508
▁रवी	-9509
▁दोबारा	-9510
lege	-9511
▁Among	-9512
▁Lab	-9513
▁fat	-9514
▁अन्तर	-9515
▁merely	-9516
▁follows	-9517
▁अभाव	-9518
▁परिसर	-9519
▁गांवों	-9520
▁pleased	-9521
IP	-9522
तरित	-9523
▁Nat	-9524
▁daily	-9525
▁conver	-9526
▁season	-9527
▁राजधानी	-9528
▁तोड़	-9529
aneous	-9530
▁युवाओं	-9531
▁profits	-9532
▁organization	-9533
ख्ते	-9534
घटना	-9535
▁वंश	-9536
.2016	-9537
lfare	-9538
▁गुमराह	-9539
▁मिलेगी	-9540
▁welfare	-9541
▁machinery	-9542
नीति	-9543
▁सतह	-9544
▁frequ	-9545
▁returns	-9546
▁प्रान्त	-9547
8)	-9548
omy	-9549
raf	-9550
▁Lim	-9551
स्पर्	-9552
▁स्वर	-9553
▁सुनने	-9554
▁happened	-9555
▁challenges	-9556
enth	-9557
फ़ि	-9558
▁पारि	-9559
▁बाह्य	-9560
▁मिलते	-9561
▁सिविल	-9562
▁चरित्र	-9563
▁partner	-9564
▁सम्पूर्ण	-9565
▁संग्र	-9566
▁सम्बन्धी	-9567
▁पैग़म्बरों	-9568
▁00	-9569
▁vital	-9570
▁Programme	-9571
तरी	-9572
नाटक	-9573
▁2010	-9574
▁grand	-9575
▁string	-9576
▁sections	-9577
▁रोगी	-9578
▁33	-9579
▁परिचय	-9580
▁undertaking	-9581
साइ	-9582
▁अश	-9583
▁Key	-9584
venue	-9585
▁लंबी	-9586
▁बारगाह	-9587
▁Besides	-9588
vis	-9589
जिट	-9590
िप्त	-9591
aces	-9592
anged	-9593
▁न्यास	-9594
▁Himalay	-9595
▁intellig	-9596
info	-9597
▁Bel	-9598
▁neck	-9599
▁carrying	-9600
मति	-9601
▁ban	-9602
▁तेरी	-9603
▁excess	-9604
्याद	-9605
▁2004	-9606
▁अभिक	-9607
▁minor	-9608
▁minimum	-9609
▁generations	-9610
arati	-9611
▁Since	-9612
▁Water	-9613
▁हिंसा	-9614
▁एकमात्र	-9615
ॉर्ड	-9616
▁उल्ल	-9617
▁चेहरे	-9618
▁तयशुदा	-9619
▁तस्वीर	-9620
▁feeling	-9621
▁excellent	-9622
▁installed	-9623
85	-9624
uta	-9625
रचना	-9626
व्यव	-9627
ricts	-9628
▁Each	-9629
▁वीर	-9630
▁turns	-9631
▁प्रबंधक	-9632
rad	-9633
▁Mary	-9634
▁Though	-9635
▁altern	-9636
UL	-9637
धर्म	-9638
▁इंच	-9639
▁निः	-9640
phone	-9641
▁Type	-9642
▁lest	-9643
▁slow	-9644
▁कैसा	-9645
▁wrongdo	-9646
▁नियुक्ति	-9647
arant	-9648
▁दाख़	-9649
▁prison	-9650
▁regions	-9651
▁recompense	-9652
चरण	-9653
▁अं	-9654
▁ठहर	-9655
rency	-9656
▁नारा	-9657
▁impos	-9658
▁विनष्ट	-9659
▁लेखन	-9660
जाम	-9661
बेस	-9662
▁याच	-9663
▁प्री	-9664
▁संगम	-9665
▁utter	-9666
▁sought	-9667
▁मिलियन	-9668
▁सकेंगे	-9669
▁sustain	-9670
▁अस्थायी	-9671
▁authorities	-9672
▁arm	-9673
▁cook	-9674
▁primary	-9675
▁creating	-9676
ाइड	-9677
▁wants	-9678
▁अदालत	-9679
▁अवतरित	-9680
▁practices	-9681
▁02	-9682
▁Two	-9683
▁तलाश	-9684
respond	-9685
▁अनुग्रह	-9686
▁कच	-9687
▁mal	-9688
▁थोड़ी	-9689
▁Commun	-9690
पत	-9691
▁जला	-9692
vention	-9693
▁पुष्टि	-9694
▁notification	-9695
बरा	-9696
िकमत	-9697
aying	-9698
▁Mail	-9699
▁बाकी	-9700
▁कुरान	-9701
▁भेजने	-9702
▁regional	-9703
▁buy	-9704
▁rej	-9705
▁nine	-9706
▁खण्ड	-9707
▁बिगा	-9708
▁joined	-9709
▁हँ	-9710
ilty	-9711
▁Aust	-9712
▁लाइस	-9713
▁keeping	-9714
▁विविधता	-9715
SS	-9716
▁Mer	-9717
▁tab	-9718
▁इल्म	-9719
▁campaign	-9720
gin	-9721
ips	-9722
▁खि	-9723
▁सन्द	-9724
▁अस्वी	-9725
▁रिक्त	-9726
▁battle	-9727
ira	-9728
▁Ham	-9729
▁urban	-9730
▁encoura	-9731
▁covenant	-9732
्लि	-9733
▁डरो	-9734
izations	-9735
ेन	-9736
▁mir	-9737
▁फैल	-9738
रूद्ध	-9739
▁Arch	-9740
▁मानवीय	-9741
▁Bengali	-9742
▁Official	-9743
70	-9744
त्स	-9745
▁nut	-9746
▁highly	-9747
▁समझौते	-9748
▁library	-9749
्यु	-9750
ancing	-9751
▁वर्गों	-9752
▁क़ियामत	-9753
▁फ़ाइलें	-9754
▁Financial	-9755
काब	-9756
▁मेन	-9757
▁आहार	-9758
▁गेंद	-9759
▁पुस्तकालय	-9760
▁आयी	-9761
achal	-9762
मिटेड	-9763
▁cold	-9764
▁prepar	-9765
पंथ	-9766
बाज	-9767
aram	-9768
▁उन्न	-9769
▁affected	-9770
pan	-9771
ंडा	-9772
्मण	-9773
पक्ष	-9774
▁ult	-9775
▁Aff	-9776
▁thank	-9777
asi	-9778
rees	-9779
ंध्र	-9780
▁कॉल	-9781
▁ड्राइ	-9782
▁पालने	-9783
▁Members	-9784
19	-9785
▁Cap	-9786
▁दर्श	-9787
▁cance	-9788
▁ऑडियो	-9789
conomic	-9790
▁दाख़िल	-9791
▁dispute	-9792
▁गिन	-9793
▁इमार	-9794
▁तुरंत	-9795
▁शर्तों	-9796
▁Date	-9797
▁plat	-9798
▁branch	-9799
▁household	-9800
)?	-9801
र्की	-9802
▁ast	-9803
▁huge	-9804
▁resource	-9805
▁प्रतियोग	-9806
▁सुविधाएं	-9807
OC	-9808
▁चुप	-9809
▁प्रथा	-9810
rome	-9811
▁मूर्	-9812
vision	-9813
▁बनाता	-9814
▁receipt	-9815
▁diseases	-9816
▁festival	-9817
▁जाल	-9818
▁भले	-9819
टका	-9820
त्ल	-9821
▁ब्राउ	-9822
▁दिखाने	-9823
▁background	-9824
▁ji	-9825
ीकृत	-9826
▁टैब	-9827
▁मुर्	-9828
▁सफेद	-9829
▁completely	-9830
▁description	-9831
▁destination	-9832
▁individuals	-9833
्पणी	-9834
▁filled	-9835
▁निकाला	-9836
▁विभाजित	-9837
▁Language	-9838
▁जिम्मेदारी	-9839
▁Certificate	-9840
कृष्ण	-9841
iciency	-9842
▁wonder	-9843
▁सराहना	-9844
▁लिमिटेड	-9845
▁positive	-9846
▁अनुसूचित	-9847
▁सर्वोत्तम	-9848
ोष	-9849
ataka	-9850
चार्य	-9851
▁sand	-9852
▁दोनो	-9853
ricket	-9854
▁drawn	-9855
▁believing	-9856
▁communities	-9857
निंग	-9858
्यास	-9859
▁Hour	-9860
▁क़ायम	-9861
▁स्कीम	-9862
▁समुद्री	-9863
▁निरीक्षण	-9864
200	-9865
▁mist	-9866
▁sett	-9867
▁degree	-9868
▁prosperity	-9869
)...	-9870
▁east	-9871
▁डिजा	-9872
▁हिकमत	-9873
▁गुनाहों	-9874
फ़ी	-9875
यिक	-9876
▁Rules	-9877
▁बनाये	-9878
▁क़िस्म	-9879
¤1⁄4	-9880
▁Non	-9881
▁wild	-9882
▁critic	-9883
ensation	-9884
▁Authority	-9885
▁वरि	-9886
▁cand	-9887
▁tong	-9888
▁अवधार	-9889
▁संपादित	-9890
▁IM	-9891
▁reasons	-9892
▁darkness	-9893
साम	-9894
ॉलर	-9895
▁ऑंख	-9896
▁कार्	-9897
▁तारा	-9898
enture	-9899
▁शिक्षक	-9900
▁submitted	-9901
▁ic	-9902
जैसे	-9903
्रेट	-9904
▁syn	-9905
निष्ठ	-9906
▁डिफ़	-9907
▁मॉडल	-9908
▁बच्चा	-9909
▁स्वीकृति	-9910
▁नवान्वेषण	-9911
CO	-9912
क्य	-9913
संबर	-9914
▁पार्	-9915
▁जुड़ा	-9916
▁colour	-9917
▁संध्या	-9918
BI	-9919
पणन	-9920
▁पत	-9921
▁cru	-9922
▁Russ	-9923
▁फिली	-9924
▁theme	-9925
▁confident	-9926
▁requirements	-9927
▁bab	-9928
▁2009	-9929
नात्मक	-9930
▁Assam	-9931
tenance	-9932
▁Joh	-9933
▁क़ुरआन	-9934
▁सितंबर	-9935
iate	-9936
▁150	-9937
ander	-9938
arian	-9939
udget	-9940
▁क्ला	-9941
▁पाँच	-9942
ishing	-9943
porate	-9944
▁actual	-9945
▁garden	-9946
▁volunt	-9947
ंछ	-9948
गन	-9949
▁board	-9950
▁Gardens	-9951
mi	-9952
▁pi	-9953
force	-9954
वलोकन	-9955
▁कश्मीर	-9956
▁integral	-9957
▁pressure	-9958
▁Excellency	-9959
ैत	-9960
गमन	-9961
ores	-9962
▁Ganga	-9963
▁स्वस्थ	-9964
▁delivery	-9965
tion	-9966
▁भरा	-9967
▁ख़ुश	-9968
▁demon	-9969
▁materials	-9970
een	-9971
्यूब	-9972
▁latter	-9973
▁reality	-9974
▁अनुमोदन	-9975
▁प्ला	-9976
▁उपखंड	-9977
▁guilty	-9978
▁relief	-9979
▁वस्त्र	-9980
▁Bu	-9981
▁ठोस	-9982
▁agreed	-9983
▁learned	-9984
▁visible	-9985
▁entitled	-9986
वर्त	-9987
▁खराब	-9988
▁ताकत	-9989
▁moral	-9990
▁latest	-9991
▁हार्दिक	-9992
▁jinn	-9993
▁दबाव	-9994
▁बुरे	-9995
icient	-9996
▁संपादन	-9997
▁passing	-9998
▁features	-9999
che	-10000
seen	-10001
नेवाली	-10002
▁Click	-10003
▁आवश्यकताओं	-10004
▁Est	-10005
▁जम्	-10006
▁crim	-10007
▁वार्	-10008
▁लाइसेंस	-10009
अल	-10010
▁Kov	-10011
श्वास	-10012
▁1956	-10013
▁sick	-10014
▁shared	-10015
▁greetings	-10016
न्ध	-10017
▁ende	-10018
▁late	-10019
▁मोदी	-10020
▁Foreign	-10021
▁picture	-10022
16	-10023
▁4,	-10024
ertain	-10025
igible	-10026
▁title	-10027
▁editor	-10028
▁wronged	-10029
▁समृद्धि	-10030
▁प्रतिष्ठित	-10031
ped	-10032
ura	-10033
▁girl	-10034
▁अपरि	-10035
▁खत्म	-10036
▁हड्ड	-10037
▁दैनिक	-10038
▁प्रदूषण	-10039
▁leadership	-10040
मगर	-10041
▁selection	-10042
हो	-10043
▁Ib	-10044
▁aid	-10045
▁भावी	-10046
▁Panch	-10047
▁विहित	-10048
▁Company	-10049
▁नीतियों	-10050
वश	-10051
oseph	-10052
▁अभिलाभ	-10053
▁aspects	-10054
ख्यात	-10055
▁bodies	-10056
▁प्लगइन	-10057
▁Speaking	-10058
▁संग्रहालय	-10059
सेट	-10060
िने	-10061
valid	-10062
▁राहत	-10063
मुसलमान	-10064
▁everyone	-10065
▁पर्	-10066
▁duties	-10067
▁चौड़ाई	-10068
▁Library	-10069
▁mission	-10070
▁प्रतिभूति	-10071
ज़िर	-10072
▁चिप	-10073
▁सुनते	-10074
▁thereby	-10075
▁हक	-10076
ayana	-10077
▁प्रवाह	-10078
▁England	-10079
▁options	-10080
▁प्रचलित	-10081
▁गौ	-10082
▁अली	-10083
▁reply	-10084
▁disput	-10085
▁internal	-10086
▁yourself	-10087
▁principles	-10088
▁resolution	-10089
aul	-10090
▁meant	-10091
▁समूहों	-10092
▁correspond	-10093
▁द्विपक्षीय	-10094
ग्ध	-10095
cean	-10096
▁hair	-10097
▁ऊपरी	-10098
▁sacred	-10099
▁स्वचालित	-10100
▁यो	-10101
वादियों	-10102
▁universal	-10103
▁अफ़	-10104
▁मृत	-10105
▁नाते	-10106
▁पैके	-10107
▁adequ	-10108
▁juris	-10109
imately	-10110
ैरह	-10111
स्ट्र	-10112
▁सोचा	-10113
▁Trust	-10114
▁सुनता	-10115
▁seized	-10116
▁facility	-10117
हिता	-10118
▁जोड़ा	-10119
▁reforms	-10120
ayan	-10121
स्कट	-10122
▁DVD	-10123
▁fab	-10124
▁drop	-10125
▁Benef	-10126
▁विक्र	-10127
▁performed	-10128
/-	-10129
▁भरे	-10130
ients	-10131
▁Report	-10132
▁teaching	-10133
▁परिभाषित	-10134
हाल	-10135
▁Park	-10136
▁Word	-10137
▁बिंदु	-10138
▁उन्होने	-10139
याय	-10140
ester	-10141
क़त	-10142
▁tur	-10143
▁आदान	-10144
▁hypoc	-10145
▁substant	-10146
ache	-10147
▁fell	-10148
▁iron	-10149
▁उतना	-10150
▁moved	-10151
▁Andhra	-10152
▁encourage	-10153
दीक	-10154
▁कू	-10155
eria	-10156
▁300	-10157
▁tiss	-10158
▁plugin	-10159
▁अग्रणी	-10160
ifications	-10161
rench	-10162
▁assum	-10163
▁compr	-10164
▁methods	-10165
▁collabor	-10166
orth	-10167
▁द्वि	-10168
▁मछली	-10169
charge	-10170
▁click	-10171
▁folders	-10172
▁planning	-10173
▁reminder	-10174
▁foundation	-10175
मंड	-10176
▁सप	-10177
▁Yoga	-10178
▁सावधान	-10179
ायर	-10180
▁मौजि	-10181
▁सरकशी	-10182
▁जहन्नम	-10183
▁division	-10184
▁incident	-10185
▁स्वाभाविक	-10186
14	-10187
athi	-10188
ार्ज	-10189
▁Subs	-10190
▁बारी	-10191
▁estim	-10192
▁उन्नत	-10193
▁prices	-10194
▁College	-10195
▁victory	-10196
▁although	-10197
▁inspired	-10198
▁participation	-10199
उंड	-10200
▁कब्	-10201
▁दान	-10202
ollow	-10203
▁users	-10204
▁विपणन	-10205
ocol	-10206
धारी	-10207
▁Life	-10208
▁dear	-10209
▁चैनल	-10210
asm	-10211
▁टूट	-10212
clause	-10213
▁subjects	-10214
sych	-10215
▁west	-10216
▁बोली	-10217
▁channel	-10218
▁संक्रमण	-10219
▁Internet	-10220
▁establishment	-10221
स्को	-10222
▁उगा	-10223
▁हरि	-10224
▁HTML	-10225
isition	-10226
ributed	-10227
▁डो	-10228
▁beings	-10229
▁चिह्नित	-10230
▁भारतीयों	-10231
ho	-10232
ूहिक	-10233
▁परे	-10234
▁फ़िल	-10235
▁Config	-10236
▁myself	-10237
▁delight	-10238
▁श्रद्धा	-10239
itt	-10240
▁रेश	-10241
▁रोज़	-10242
▁बहुतेरे	-10243
▁छि	-10244
ondon	-10245
▁गर्म	-10246
▁साइट	-10247
▁रिज	-10248
inated	-10249
▁petitioner	-10250
ट्	-10251
▁ang	-10252
▁समझे	-10253
▁audio	-10254
▁Current	-10255
▁climate	-10256
ka	-10257
▁Av	-10258
▁बाधा	-10259
▁नेपाल	-10260
urities	-10261
▁दिसंबर	-10262
▁entreprene	-10263
▁governance	-10264
▁लेती	-10265
▁कपड़े	-10266
▁delete	-10267
▁bestowed	-10268
▁ज़ालिमों	-10269
▁transform	-10270
▁Governments	-10271
▁intellectual	-10272
फोन	-10273
▁मक	-10274
सागर	-10275
▁inner	-10276
▁जन्नत	-10277
Comment	-10278
▁released	-10279
▁लानेवालो	-10280
क्क	-10281
हाई	-10282
▁चतु	-10283
▁हुक	-10284
▁ahead	-10285
▁trave	-10286
▁आजादी	-10287
atabase	-10288
▁forever	-10289
▁sources	-10290
दल	-10291
odes	-10292
रीबी	-10293
स्तर	-10294
▁वकी	-10295
कार्य	-10296
▁admon	-10297
फो	-10298
लक	-10299
▁अँ	-10300
रेखा	-10301
inger	-10302
▁ज़रा	-10303
▁मुंह	-10304
▁उत्साह	-10305
▁मंदिरों	-10306
▁daughter	-10307
▁suitable	-10308
▁डिफ़ॉल्ट	-10309
ottom	-10310
▁Disc	-10311
▁अर्ध	-10312
▁भेजी	-10313
▁उतारा	-10314
▁यूनिट	-10315
▁double	-10316
▁टिप्पणी	-10317
pass	-10318
▁Sun	-10319
▁कैं	-10320
astic	-10321
▁Send	-10322
▁ट्रे	-10323
▁nearly	-10324
▁कृतज्ञ	-10325
▁enabled	-10326
▁attached	-10327
look	-10328
▁असर	-10329
▁लाओ	-10330
▁Like	-10331
▁गिरा	-10332
othing	-10333
▁ऊंचाई	-10334
▁limits	-10335
▁अवसरों	-10336
▁साहित्यिक	-10337
grim	-10338
▁छाया	-10339
▁वर्गी	-10340
▁arrest	-10341
▁मुसीबत	-10342
▁कर्नाटक	-10343
▁Scripture	-10344
बाल	-10345
bell	-10346
▁Kar	-10347
oning	-10348
▁छुपा	-10349
▁देखी	-10350
▁प्रविष्टि	-10351
पात	-10352
▁exact	-10353
उप	-10354
▁टॉ	-10355
▁Tru	-10356
rible	-10357
▁star	-10358
▁Reserve	-10359
▁actions	-10360
▁critical	-10361
▁सन	-10362
▁endeav	-10363
▁कर्तव्य	-10364
जान	-10365
▁गू	-10366
▁स्ट्र	-10367
▁challenge	-10368
▁insurance	-10369
▁registration	-10370
ेंद्र	-10371
▁Self	-10372
▁Found	-10373
▁कुमार	-10374
▁बन्दे	-10375
▁अस्पताल	-10376
मेरे	-10377
राईल	-10378
▁मानना	-10379
▁समझता	-10380
▁sacrifice	-10381
gypt	-10382
माना	-10383
▁दुर	-10384
▁चाहा	-10385
▁defence	-10386
▁deposit	-10387
▁consists	-10388
pel	-10389
▁लगाए	-10390
्यादती	-10391
▁grass	-10392
▁plays	-10393
▁पर्वत	-10394
▁Custom	-10395
▁दह	-10396
▁फ्र	-10397
▁Docu	-10398
क्रिप्ट	-10399
▁Number	-10400
▁changing	-10401
तिश	-10402
पिता	-10403
▁खाओ	-10404
▁Mighty	-10405
▁manager	-10406
▁Independ	-10407
दरा	-10408
▁atm	-10409
▁घटक	-10410
▁क़दम	-10411
▁डेस्कट	-10412
▁फ़िल्म	-10413
7)	-10414
▁Ash	-10415
▁Maj	-10416
▁दुः	-10417
▁क्रो	-10418
▁सीधी	-10419
▁Autom	-10420
▁Invalid	-10421
▁संवर्धन	-10422
mn	-10423
writ	-10424
▁obst	-10425
▁Color	-10426
▁महीनों	-10427
▁ट्रै	-10428
▁promotion	-10429
▁.	-10430
eks	-10431
▁Sk	-10432
orial	-10433
▁stood	-10434
▁विद्र	-10435
▁सामूहिक	-10436
isms	-10437
ड़ित	-10438
erate	-10439
▁हितों	-10440
▁सदी	-10441
शिष्ट	-10442
▁About	-10443
▁जिहाद	-10444
▁भक्ति	-10445
क्षिप्त	-10446
▁hero	-10447
▁स्वर्ण	-10448
ष्णु	-10449
ार्ट	-10450
ingly	-10451
▁धन्यवाद	-10452
▁दुर्घटना	-10453
▁Assistant	-10454
▁containing	-10455
ipl	-10456
▁Met	-10457
▁चाहें	-10458
▁platform	-10459
▁प्रतिस्पर्	-10460
hu	-10461
य्य	-10462
▁बोस	-10463
▁मकान	-10464
atience	-10465
▁achieved	-10466
ams	-10467
ंची	-10468
ंटा	-10469
तौर	-10470
idge	-10471
▁रूस	-10472
▁अरबी	-10473
▁सचेत	-10474
▁Buddha	-10475
तियां	-10476
▁बादशाह	-10477
▁waiting	-10478
▁recently	-10479
मूल	-10480
▁Make	-10481
▁upper	-10482
▁क़त्ल	-10483
▁orders	-10484
▁सत्यापन	-10485
्मा	-10486
back	-10487
hand	-10488
▁row	-10489
▁उद्ध	-10490
▁गहरी	-10491
▁अन्तर्गत	-10492
दूरी	-10493
▁जवा	-10494
▁Proper	-10495
▁यूरोपीय	-10496
iy	-10497
▁Press	-10498
▁Print	-10499
▁Prote	-10500
▁दिव्य	-10501
▁charged	-10502
▁failure	-10503
▁letters	-10504
▁भरी	-10505
प्रदान	-10506
▁bilateral	-10507
”,	-10508
▁गार	-10509
using	-10510
▁Tour	-10511
▁glor	-10512
▁Mount	-10513
▁reduce	-10514
▁वरिष्ठ	-10515
▁priority	-10516
▁publication	-10517
कोश	-10518
ifies	-10519
▁फर्म	-10520
▁अग्रिम	-10521
रेख	-10522
सीन	-10523
▁Nag	-10524
iders	-10525
▁menu	-10526
▁डिजिट	-10527
▁समानता	-10528
▁nuclear	-10529
▁agencies	-10530
hern	-10531
ॉनिक	-10532
्यूल	-10533
▁कारणों	-10534
▁सीमाओं	-10535
▁surv	-10536
▁minutes	-10537
हमारे	-10538
ेश्वर	-10539
▁आएगा	-10540
▁आरोप	-10541
▁Class	-10542
दर्शिता	-10543
▁पक्षों	-10544
▁centres	-10545
▁जानवरों	-10546
▁historical	-10547
▁AD	-10548
▁ax	-10549
rical	-10550
▁Party	-10551
▁देवता	-10552
▁Knower	-10553
▁पैमाने	-10554
▁Princip	-10555
▁treated	-10556
▁examination	-10557
ंघन	-10558
राव	-10559
मर्श	-10560
▁लूत	-10561
▁पीढ़ी	-10562
▁Kovind	-10563
▁insects	-10564
▁पासवर्ड	-10565
▁mountain	-10566
ubs	-10567
निवेश	-10568
▁proved	-10569
▁proport	-10570
▁सदस्यता	-10571
aut	-10572
▁फु	-10573
शाही	-10574
▁बैक	-10575
▁मक्	-10576
▁Code	-10577
▁दौड़	-10578
▁सीडी	-10579
overed	-10580
▁त्वचा	-10581
▁बाध्य	-10582
bal	-10583
iant	-10584
▁Bah	-10585
▁FOR	-10586
▁करु	-10587
▁ऊँचा	-10588
▁ब्रि	-10589
▁swear	-10590
▁अक्षर	-10591
▁counter	-10592
▁reports	-10593
▁पत्रिका	-10594
▁संरक्षक	-10595
▁fighting	-10596
▁extension	-10597
bon	-10598
संप	-10599
▁(.	-10600
िकता	-10601
▁Civil	-10602
▁उल्लेखनीय	-10603
▁liqu	-10604
▁सहमत	-10605
क्तूबर	-10606
▁London	-10607
▁Another	-10608
▁चाहेंगे	-10609
▁approval	-10610
TH	-10611
▁hind	-10612
▁scholar	-10613
▁डेस्कटॉप	-10614
▁suffering	-10615
IM	-10616
ण्य	-10617
▁मुकाब	-10618
▁तत्काल	-10619
▁शिक्षण	-10620
▁(5)	-10621
▁anti	-10622
▁Nepal	-10623
▁recorded	-10624
▁sanction	-10625
▁अनुज्ञात	-10626
िमा	-10627
plit	-10628
▁Pet	-10629
▁doub	-10630
▁यूसुफ	-10631
▁thanks	-10632
▁साथियों	-10633
▁Society	-10634
▁Palestin	-10635
▁घु	-10636
▁नौकरी	-10637
▁purchase	-10638
▁Mun	-10639
▁flu	-10640
▁Play	-10641
▁tend	-10642
▁चीजों	-10643
▁जम्मू	-10644
▁fabric	-10645
▁अपनाया	-10646
▁चिकित्स	-10647
▁relative	-10648
▁awareness	-10649
▁witnesses	-10650
God	-10651
imb	-10652
न्थ	-10653
▁रवि	-10654
▁Tribunal	-10655
▁register	-10656
▁प्रतिबंध	-10657
▁advantage	-10658
▁commanded	-10659
▁forgiving	-10660
IF	-10661
▁Pen	-10662
▁Egypt	-10663
▁दर्दना	-10664
▁chemical	-10665
▁विनिर्माण	-10666
1}	-10667
ithm	-10668
▁ग़ौर	-10669
▁दर्द	-10670
▁हमको	-10671
▁जितनी	-10672
▁served	-10673
▁मिलाकर	-10674
▁8.	-10675
▁187	-10676
▁Assess	-10677
▁इसराईल	-10678
▁visited	-10679
▁मोमिनीन	-10680
ुरी	-10681
ेरे	-10682
▁5,	-10683
▁पहलू	-10684
oration	-10685
▁पूर्वो	-10686
▁distinct	-10687
EG	-10688
▁उभ	-10689
▁उड़ा	-10690
▁कच्च	-10691
धिकारी	-10692
▁volume	-10693
▁विद्या	-10694
▁requires	-10695
▁अंतरिक्ष	-10696
▁बांग	-10697
क्योंकि	-10698
▁marked	-10699
▁manufacturing	-10700
संच	-10701
▁चेक	-10702
▁पुष्	-10703
▁adopt	-10704
▁Associ	-10705
▁president	-10706
▁टू	-10707
ित्त	-10708
thern	-10709
▁Writ	-10710
▁plot	-10711
▁Creat	-10712
▁Micro	-10713
▁newsp	-10714
▁डिजाइन	-10715
▁प्रारम्भ	-10716
अनु	-10717
▁आंध्र	-10718
▁>>	-10719
▁कोय	-10720
stitu	-10721
▁reck	-10722
▁figures	-10723
फू	-10724
▁caste	-10725
iration	-10726
▁seeing	-10727
▁तुम्हे	-10728
▁रेडियो	-10729
▁क्रिकेट	-10730
▁विरूद्ध	-10731
जाल	-10732
▁Modi	-10733
▁absolute	-10734
कू	-10735
dess	-10736
▁Enc	-10737
▁ren	-10738
▁uns	-10739
▁कष्ट	-10740
▁warner	-10741
aly	-10742
▁खिस	-10743
▁piece	-10744
▁मजदूर	-10745
▁signed	-10746
▁याचिका	-10747
▁असाधारण	-10748
डो	-10749
िरो	-10750
otic	-10751
▁तकलीफ़	-10752
▁पूर्ति	-10753
▁instance	-10754
▁यथास्थिति	-10755
▁पूर्वावलोकन	-10756
▁match	-10757
▁phase	-10758
▁refer	-10759
▁courage	-10760
▁contacts	-10761
oti	-10762
oral	-10763
▁Ira	-10764
▁चोट	-10765
▁नाप	-10766
▁डॉलर	-10767
▁guides	-10768
▁बिगाड़	-10769
▁situated	-10770
श्री	-10771
▁Gov	-10772
▁शोक	-10773
▁Page	-10774
▁अहले	-10775
▁चंद्र	-10776
▁फ़िरऔन	-10777
▁whereas	-10778
▁Stud	-10779
▁नेशनल	-10780
diction	-10781
▁Security	-10782
काता	-10783
▁एक्	-10784
▁बुल	-10785
म्परा	-10786
▁leaf	-10787
otional	-10788
▁Training	-10789
▁constituted	-10790
▁manufacture	-10791
ंगों	-10792
▁Cult	-10793
▁lock	-10794
▁हिमा	-10795
▁mobile	-10796
▁monitor	-10797
▁universities	-10798
▁BC	-10799
▁‘‘	-10800
▁heat	-10801
astern	-10802
▁fault	-10803
▁अर्जित	-10804
▁election	-10805
▁happiness	-10806
rel	-10807
▁यूँ	-10808
▁हला	-10809
▁दावे	-10810
▁तीसरे	-10811
▁सम्भव	-10812
▁उपयोगकर्ता	-10813
mod	-10814
oose	-10815
▁Mat	-10816
▁तंग	-10817
hance	-10818
▁दर्दनाक	-10819
▁निष्कर्ष	-10820
▁पुस्तकों	-10821
▁वस	-10822
rief	-10823
▁preced	-10824
▁तत्वों	-10825
▁प्रतियोगिता	-10826
▁(4	-10827
▁Va	-10828
▁यौ	-10829
ammu	-10830
▁Once	-10831
▁incor	-10832
▁faithful	-10833
▁बजट	-10834
ammed	-10835
enance	-10836
▁पौधों	-10837
▁कठिनाई	-10838
▁ability	-10839
▁यथ	-10840
▁Log	-10841
▁चाय	-10842
▁प्रेस	-10843
orthern	-10844
▁subsequ	-10845
▁फ़रिश्ते	-10846
▁commitment	-10847
ंख्य	-10848
plate	-10849
▁Prem	-10850
▁अंतः	-10851
▁successfully	-10852
esus	-10853
▁ब्य	-10854
▁privile	-10855
▁proceedings	-10856
कल्प	-10857
▁गहन	-10858
▁घाटी	-10859
▁समाय	-10860
▁eleph	-10861
▁replace	-10862
▁warning	-10863
ैया	-10864
त्ते	-10865
▁बचाव	-10866
▁बांध	-10867
▁इंडियन	-10868
▁निशानियों	-10869
esty	-10870
othe	-10871
द्दी	-10872
▁www	-10873
▁पाइ	-10874
▁poem	-10875
▁पैरा	-10876
▁संहिता	-10877
▁पंजीकृत	-10878
▁Karnataka	-10879
RAN	-10880
नान	-10881
्रोल	-10882
▁eth	-10883
▁रिस	-10884
▁हरे	-10885
▁dign	-10886
▁काली	-10887
▁appears	-10888
▁interesting	-10889
ब्ब	-10890
ानिक	-10891
▁hop	-10892
▁दास	-10893
▁Const	-10894
▁राजस्व	-10895
▁descend	-10896
▁healthy	-10897
▁showing	-10898
▁अक्तूबर	-10899
▁क्रांति	-10900
▁प्रेषित	-10901
▁44	-10902
raid	-10903
▁Top	-10904
▁साँ	-10905
▁बारह	-10906
▁दुश्म	-10907
▁Justice	-10908
▁squared	-10909
किसी	-10910
ुसार	-10911
▁पाद	-10912
▁Jews	-10913
▁banking	-10914
rehensive	-10915
▁officials	-10916
पूर	-10917
▁उपकरणों	-10918
,—	-10919
▁फि	-10920
▁ख़ौ	-10921
▁Year	-10922
▁गरीबी	-10923
St	-10924
▁weeks	-10925
▁Arabic	-10926
▁bright	-10927
▁decades	-10928
▁records	-10929
▁parliament	-10930
ses	-10931
रुप	-10932
claim	-10933
▁Iraq	-10934
▁छोड़ा	-10935
▁assured	-10936
मुसलमानों	-10937
pta	-10938
सेस	-10939
▁Next	-10940
▁grown	-10941
▁looks	-10942
▁कनेक्ट	-10943
▁मूलभूत	-10944
▁burning	-10945
▁कॉन्फ़ि	-10946
▁त्रुटिः	-10947
▁tom	-10948
▁कहे	-10949
▁कहला	-10950
▁Before	-10951
पश्च	-10952
▁agg	-10953
▁gat	-10954
▁sus	-10955
erves	-10956
▁खतरा	-10957
▁बाबू	-10958
▁सांस	-10959
▁supreme	-10960
▁केंद्रित	-10961
▁falsehood	-10962
rat	-10963
▁उपर	-10964
ड़िया	-10965
abinet	-10966
▁delay	-10967
▁defend	-10968
▁student	-10969
▁principle	-10970
▁fundamental	-10971
going	-10972
▁Find	-10973
▁Help	-10974
▁Mand	-10975
▁band	-10976
▁गठित	-10977
▁पैकेज	-10978
▁बल्ले	-10979
mendment	-10980
▁conflict	-10981
सनीय	-10982
▁veh	-10983
▁काउ	-10984
▁नज़	-10985
▁notes	-10986
▁toward	-10987
▁Administr	-10988
▁discussion	-10989
जनन	-10990
ंडित	-10991
▁announced	-10992
▁Don	-10993
▁Rad	-10994
▁परस	-10995
▁exec	-10996
▁धातु	-10997
▁कहेगा	-10998
▁unable	-10999
▁वार्ता	-11000
▁scientists	-11001
lal	-11002
▁disk	-11003
▁अधिकरण	-11004
▁Control	-11005
▁factors	-11006
▁शक्तिशाली	-11007
▁आब	-11008
▁ईसाई	-11009
▁coord	-11010
▁मैत्री	-11011
▁applied	-11012
दायक	-11013
▁bran	-11014
▁Clear	-11015
▁Vishn	-11016
▁writer	-11017
▁smaller	-11018
-200	-11019
erted	-11020
▁rates	-11021
▁जायें	-11022
▁tonnes	-11023
▁scholars	-11024
alg	-11025
▁चू	-11026
ंकित	-11027
अच्छा	-11028
प्रभु	-11029
▁बैठा	-11030
▁लाना	-11031
▁Jammu	-11032
▁admit	-11033
▁overt	-11034
▁फायदा	-11035
ibilities	-11036
▁download	-11037
-4	-11038
ढ़े	-11039
▁शेय	-11040
▁सरकश	-11041
ittees	-11042
luding	-11043
▁sitting	-11044
▁बैंकिंग	-11045
▁multiple	-11046
▁friendship	-11047
▁Application	-11048
AV	-11049
िली	-11050
्नों	-11051
▁mur	-11052
▁अग्	-11053
▁क्व	-11054
▁infl	-11055
anging	-11056
▁Brahm	-11057
▁accident	-11058
aded	-11059
last	-11060
oken	-11061
यंती	-11062
quest	-11063
▁spoke	-11064
▁आलोचना	-11065
aughters	-11066
▁sending	-11067
▁व्यक्तित्व	-11068
ज़ोर	-11069
शांत	-11070
▁Sind	-11071
▁herit	-11072
ulating	-11073
▁Export	-11074
▁Invest	-11075
▁orient	-11076
▁प्रस्तु	-11077
▁followers	-11078
▁democratic	-11079
wa	-11080
IME	-11081
काय	-11082
▁Noah	-11083
▁helps	-11084
▁सहमति	-11085
▁उद्यान	-11086
▁Unknown	-11087
▁objects	-11088
▁merciful	-11089
▁proposed	-11090
बेह	-11091
▁bes	-11092
▁औरत	-11093
▁coal	-11094
स्ट्री	-11095
▁Human	-11096
▁Rajya	-11097
▁abode	-11098
▁offline	-11099
▁efficient	-11100
▁</	-11101
▁uses	-11102
▁समन्वय	-11103
▁bringing	-11104
▁काफ़िरों	-11105
▁वाणिज्यिक	-11106
▁transferred	-11107
▁professional	-11108
,'	-11109
22	-11110
टि	-11111
ादिर	-11112
▁Fort	-11113
▁weap	-11114
▁अब्द	-11115
▁abund	-11116
▁phone	-11117
▁देगें	-11118
holders	-11119
▁recognised	-11120
ica	-11121
▁जम	-11122
वंबर	-11123
▁नार	-11124
▁मरा	-11125
▁अकाद	-11126
icious	-11127
▁जवाहर	-11128
▁decide	-11129
▁काफिरों	-11130
▁becoming	-11131
DU	-11132
▁सद्	-11133
▁Call	-11134
▁Down	-11135
▁फ़िल्टर	-11136
01.	-11137
▁Nan	-11138
▁sell	-11139
▁micro	-11140
▁ढांचा	-11141
▁संवेदन	-11142
▁negative	-11143
शः	-11144
▁लगती	-11145
▁deleg	-11146
▁परिवारों	-11147
▁भटक	-11148
▁sole	-11149
▁valu	-11150
▁acquired	-11151
तू	-11152
apur	-11153
▁bene	-11154
▁माने	-11155
pected	-11156
▁explo	-11157
▁संदाय	-11158
▁doctor	-11159
▁showed	-11160
▁प्रणाल	-11161
▁concent	-11162
oples	-11163
▁hill	-11164
▁ग्री	-11165
▁कामों	-11166
▁Process	-11167
▁elected	-11168
▁कोविन्द	-11169
▁बौद्धिक	-11170
▁heritage	-11171
▁obtained	-11172
▁whatsoever	-11173
▁34	-11174
▁CH	-11175
ouch	-11176
वानी	-11177
▁उर्व	-11178
▁Server	-11179
▁courts	-11180
▁निर्मा	-11181
▁मुक्ति	-11182
▁districts	-11183
▁engineering	-11184
mar	-11185
▁Id	-11186
▁skill	-11187
▁शान्त	-11188
had	-11189
▁CON	-11190
inity	-11191
▁married	-11192
▁मनुष्यों	-11193
▁currently	-11194
▁Legislative	-11195
US	-11196
▁सल	-11197
▁Bose	-11198
▁abide	-11199
▁sugar	-11200
▁धारणा	-11201
▁instruments	-11202
▁Nare	-11203
▁Mahab	-11204
▁फार्म	-11205
▁currency	-11206
▁टो	-11207
▁पाब	-11208
▁pollution	-11209
No	-11210
pet	-11211
▁surpr	-11212
▁रूपांत	-11213
▁effects	-11214
▁जिम्मेदार	-11215
▁implemented	-11216
,%	-11217
▁AS	-11218
anya	-11219
issa	-11220
▁Women	-11221
▁नेत्र	-11222
-8	-11223
.—	-11224
lo	-11225
ुत्	-11226
▁तैय	-11227
▁मादा	-11228
▁जोड़े	-11229
▁Business	-11230
▁patience	-11231
▁withdraw	-11232
▁daughters	-11233
िरी	-11234
▁शरण	-11235
स्पति	-11236
▁arrog	-11237
▁पड़ती	-11238
▁प्रोज	-11239
▁मोमिन	-11240
▁सैनिक	-11241
ghanistan	-11242
▁politics	-11243
▁eld	-11244
▁adult	-11245
▁enhan	-11246
▁weather	-11247
▁विद्यालय	-11248
धानिक	-11249
▁कागज	-11250
isations	-11251
▁उल्लंघन	-11252
▁चुनौतियों	-11253
सो	-11254
alt	-11255
oser	-11256
▁cave	-11257
▁rice	-11258
▁सकाः	-11259
▁doesn	-11260
▁recon	-11261
▁candid	-11262
▁recall	-11263
ila	-11264
omic	-11265
▁शिशु	-11266
▁जायेगी	-11267
▁destruction	-11268
▁dia	-11269
▁मॉड	-11270
redit	-11271
▁रहस्य	-11272
▁पड़ेगा	-11273
▁ब्रह्म	-11274
▁classes	-11275
aced	-11276
▁Gra	-11277
ormal	-11278
▁मुगल	-11279
▁निवासी	-11280
▁confirm	-11281
▁औपचारिक	-11282
▁decisions	-11283
▁compassion	-11284
▁गवर्	-11285
▁बनकर	-11286
▁श्रमिक	-11287
iversary	-11288
EP	-11289
Re	-11290
ंजलि	-11291
जीवन	-11292
▁रोका	-11293
▁choice	-11294
▁विद्वान	-11295
ैम	-11296
▁48	-11297
▁बेटा	-11298
▁साहस	-11299
स्ट्रे	-11300
▁Joseph	-11301
▁damage	-11302
▁escape	-11303
▁प्रभाग	-11304
▁सुसंगत	-11305
▁फ़रिश्तों	-11306
▁संक्षिप्त	-11307
▁administrative	-11308
ुरा	-11309
▁reb	-11310
▁ears	-11311
▁Would	-11312
▁indig	-11313
▁कक्षा	-11314
▁चीज़े	-11315
▁unknown	-11316
▁परम्परा	-11317
▁सेल	-11318
▁फेंक	-11319
▁लिंग	-11320
ध्यक्ष	-11321
▁Mother	-11322
▁playing	-11323
▁कारोबार	-11324
ियाई	-11325
▁Ben	-11326
▁ध्वज	-11327
▁चाहती	-11328
▁skills	-11329
rier	-11330
िश्र	-11331
▁sends	-11332
▁अकेले	-11333
▁hasten	-11334
▁Affairs	-11335
▁नवंबर	-11336
▁लगाना	-11337
▁behold	-11338
▁factor	-11339
ployment	-11340
▁Ent	-11341
▁चिंत	-11342
▁टुकड़े	-11343
▁तमिलना	-11344
▁प्रवृत्ति	-11345
.11	-11346
will	-11347
▁mig	-11348
.2013	-11349
▁attain	-11350
▁obvious	-11351
▁appeared	-11352
▁objectives	-11353
EC	-11354
सीय	-11355
▁वकील	-11356
▁प्रत्या	-11357
▁maintenance	-11358
▁technologies	-11359
▁पहन	-11360
eless	-11361
inese	-11362
▁वंचित	-11363
▁दक्षिणी	-11364
▁compared	-11365
▁gathered	-11366
▁jurisdiction	-11367
▁Soft	-11368
क्षणिक	-11369
▁recip	-11370
▁पैरवी	-11371
▁निष्पादन	-11372
▁इक	-11373
▁Hon	-11374
▁fee	-11375
▁अम्	-11376
rites	-11377
▁John	-11378
▁Nadu	-11379
▁Kumar	-11380
▁जयंती	-11381
▁निकले	-11382
▁बढ़ने	-11383
▁lawful	-11384
▁equipment	-11385
▁कॉन्फ़िगर	-11386
वारी	-11387
▁बेल	-11388
ishes	-11389
▁NAME	-11390
▁जिसपर	-11391
▁प्रसंस्	-11392
▁ordinary	-11393
▁initiative	-11394
15	-11395
पेट	-11396
▁Dec	-11397
▁Mult	-11398
▁bounty	-11399
▁अंतराल	-11400
▁बाग़ों	-11401
▁comfort	-11402
▁बस्तियों	-11403
anj	-11404
काने	-11405
पूर्ति	-11406
▁minds	-11407
▁noted	-11408
▁क़ुबूल	-11409
▁संभावित	-11410
▁operating	-11411
नाक	-11412
▁-.	-11413
anas	-11414
▁irr	-11415
▁बढा	-11416
▁1947	-11417
▁argument	-11418
▁properly	-11419
▁permanent	-11420
▁स्वामित्व	-11421
्द	-11422
▁गै	-11423
lets	-11424
▁Tel	-11425
कर्षण	-11426
स्तानी	-11427
▁archive	-11428
izon	-11429
▁Yes	-11430
▁amb	-11431
▁sym	-11432
▁साव	-11433
▁Mugh	-11434
▁चीजें	-11435
▁प्यार	-11436
▁stands	-11437
▁Ministers	-11438
▁interpret	-11439
▁organized	-11440
▁university	-11441
पल	-11442
गों	-11443
▁गर	-11444
▁drugs	-11445
▁परसतिश	-11446
▁Command	-11447
▁इस्लामी	-11448
▁examples	-11449
1)	-11450
वती	-11451
्वान	-11452
▁Ref	-11453
▁हिमालय	-11454
▁thoughts	-11455
त्ती	-11456
▁Ali	-11457
▁Max	-11458
ceeds	-11459
▁कॉलेज	-11460
▁यहूदी	-11461
▁Austral	-11462
▁inherit	-11463
▁पदार्थों	-11464
▁organised	-11465
▁corruption	-11466
▁छू	-11467
▁compar	-11468
▁adequate	-11469
▁hall	-11470
▁western	-11471
▁il	-11472
▁kil	-11473
▁अगली	-11474
▁अभिन	-11475
▁पिछली	-11476
pective	-11477
▁conducted	-11478
▁विद्यार्थी	-11479
ूली	-11480
▁आल	-11481
▁खतर	-11482
antic	-11483
▁Load	-11484
▁हाथी	-11485
omever	-11486
▁facts	-11487
▁Industrial	-11488
सूर	-11489
स्थल	-11490
▁rob	-11491
place	-11492
▁आबादी	-11493
▁समुचित	-11494
▁उपलब्धि	-11495
▁addressed	-11496
ris	-11497
udi	-11498
ल्‍	-11499
▁Alm	-11500
▁prose	-11501
▁Chapter	-11502
▁maintained	-11503
▁ज़ोर	-11504
▁लेगा	-11505
▁holds	-11506
ensions	-11507
▁afford	-11508
ब्रे	-11509
▁नोड	-11510
▁साध	-11511
▁agency	-11512
▁settled	-11513
▁तंत्रिका	-11514
▁Das	-11515
▁mos	-11516
▁rent	-11517
▁पहुंचे	-11518
▁constant	-11519
▁afraid	-11520
▁संचालित	-11521
▁इजा	-11522
▁ताला	-11523
▁फोटो	-11524
▁Vishnu	-11525
▁enemies	-11526
▁प्रवृत्त	-11527
fast	-11528
oned	-11529
▁सब्	-11530
▁गहराई	-11531
▁मस्जिद	-11532
▁रिजर्व	-11533
▁welcome	-11534
डकर	-11535
ankar	-11536
ख्तेयार	-11537
▁citizen	-11538
▁territory	-11539
ni	-11540
▁IC	-11541
izes	-11542
▁cow	-11543
▁उभर	-11544
ially	-11545
▁arms	-11546
▁देशी	-11547
▁pages	-11548
▁resist	-11549
▁struct	-11550
▁thirty	-11551
▁Remember	-11552
▁suddenly	-11553
▁conference	-11554
alle	-11555
धीरे	-11556
र्ज़	-11557
▁पीने	-11558
▁incur	-11559
▁desert	-11560
▁प्रोटोक	-11561
▁सम्पर्क	-11562
▁centuries	-11563
▁Tri	-11564
▁खिल	-11565
▁पैसे	-11566
▁willed	-11567
▁solution	-11568
▁identified	-11569
AND	-11570
urg	-11571
▁bul	-11572
ग्रहण	-11573
▁didn	-11574
▁जुड़ी	-11575
▁chance	-11576
▁शिक्षकों	-11577
▁atmosphere	-11578
ंभव	-11579
▁Files	-11580
▁छुटकारा	-11581
▁covering	-11582
▁dedicated	-11583
ुम्ब	-11584
▁Gaz	-11585
▁Rest	-11586
▁lose	-11587
▁पेशे	-11588
▁inval	-11589
▁स्टेशन	-11590
▁रिकार्ड	-11591
▁गिरफ्तार	-11592
न्य	-11593
▁evol	-11594
▁समाह	-11595
▁stars	-11596
▁blessed	-11597
▁स्वीकृत	-11598
▁contents	-11599
▁devotion	-11600
▁marketing	-11601
.10	-11602
▁पच	-11603
▁Kan	-11604
▁अमल	-11605
▁घूम	-11606
itual	-11607
▁सरपर	-11608
क्ताओं	-11609
दराबाद	-11610
▁solar	-11611
▁Ha	-11612
दिरा	-11613
▁आनु	-11614
▁कराना	-11615
▁SP	-11616
▁पोषण	-11617
brance	-11618
▁सामान्यतः	-11619
▁सफलतापूर्वक	-11620
ourse	-11621
▁disg	-11622
▁जीवा	-11623
▁मनोर	-11624
▁सवार	-11625
▁launch	-11626
▁motion	-11627
▁transaction	-11628
▁रवीन्द्रनाथ	-11629
MP	-11630
▁मिथ	-11631
▁City	-11632
▁चन्द	-11633
▁Friend	-11634
▁आसमानों	-11635
▁ब्रिटेन	-11636
▁attitude	-11637
▁आमंत्रित	-11638
odh	-11639
मों	-11640
▁हॉ	-11641
▁demonstr	-11642
▁eligible	-11643
▁configuration	-11644
amin	-11645
arya	-11646
डिंग	-11647
▁URI	-11648
▁vir	-11649
▁prime	-11650
▁प्रसंग	-11651
▁उद्देश्यों	-11652
कीर्ण	-11653
ग़रज़	-11654
▁aims	-11655
▁इनसे	-11656
▁favor	-11657
▁tasks	-11658
▁कोलकाता	-11659
▁designed	-11660
.12	-11661
दस्त	-11662
सीसी	-11663
▁Kab	-11664
▁rid	-11665
▁टर्म	-11666
▁रुचि	-11667
▁रहमान	-11668
▁feature	-11669
▁finance	-11670
▁thousands	-11671
▁गर्व	-11672
▁गोया	-11673
▁Middle	-11674
▁closed	-11675
▁branches	-11676
लभ	-11677
ंसिल	-11678
▁wr	-11679
▁Jaw	-11680
▁कथन	-11681
▁Flag	-11682
▁Musa	-11683
▁इसपर	-11684
▁पूछो	-11685
▁psych	-11686
कांक्षा	-11687
▁विष्णु	-11688
▁योग्यता	-11689
IST	-11690
▁ment	-11691
▁जनरल	-11692
▁अर्ज़	-11693
▁Whoever	-11694
▁guarant	-11695
▁medicine	-11696
▁terrible	-11697
▁substance	-11698
ंशिक	-11699
क्सा	-11700
िन्त	-11701
▁10.	-11702
▁Good	-11703
▁font	-11704
▁senior	-11705
▁peoples	-11706
प्न	-11707
▁गौरव	-11708
▁Hyder	-11709
▁ग्राफ	-11710
▁Engine	-11711
▁License	-11712
▁finally	-11713
▁Regional	-11714
▁प्रकाशना	-11715
cont	-11716
ette	-11717
▁Sard	-11718
▁spot	-11719
▁रानी	-11720
▁Judge	-11721
▁आज़मा	-11722
▁कर्ता	-11723
▁प्रास	-11724
▁Although	-11725
▁grateful	-11726
▁संस्थापित	-11727
▁electricity	-11728
FC	-11729
▁सहन	-11730
▁दिलच	-11731
क़ुरान	-11732
ूष	-11733
▁छत	-11734
▁नै	-11735
▁जीन	-11736
▁User	-11737
▁आपसे	-11738
▁brows	-11739
▁स्मरण	-11740
▁flowers	-11741
▁प्राधिकार	-11742
प्ट	-11743
्मी	-11744
▁SC	-11745
aman	-11746
▁Orissa	-11747
▁स्थाना	-11748
▁enhance	-11749
▁08	-11750
ड़ना	-11751
▁1992	-11752
▁idol	-11753
▁त्रि	-11754
▁sanct	-11755
▁reported	-11756
▁Christian	-11757
खन	-11758
शंकर	-11759
▁Jag	-11760
▁Swami	-11761
▁blame	-11762
राष्ट्र	-11763
▁strike	-11764
▁अन्तिम	-11765
▁डिजिटल	-11766
▁मशीनरी	-11767
▁prayers	-11768
atre	-11769
▁1950	-11770
▁निकलने	-11771
▁सिद्धांतों	-11772
शनी	-11773
ार्इ	-11774
▁wage	-11775
▁क्षण	-11776
▁वैसा	-11777
▁माध्य	-11778
▁आरंभिक	-11779
▁pilgrim	-11780
▁पहुंचने	-11781
▁उत्तरदायी	-11782
rd	-11783
▁LD	-11784
iced	-11785
▁गर्भ	-11786
▁घुमा	-11787
▁billion	-11788
▁respective	-11789
▁9.	-11790
▁नान	-11791
▁इलाज	-11792
iments	-11793
▁किलोमीटर	-11794
van	-11795
▁El	-11796
▁memo	-11797
▁दिमा	-11798
▁जानकर	-11799
▁बांग्ला	-11800
▁identity	-11801
बै	-11802
roc	-11803
▁37	-11804
umin	-11805
luded	-11806
▁आचरण	-11807
▁costs	-11808
▁Windows	-11809
▁इलेक्ट्रॉनिक	-11810
-3	-11811
▁ec	-11812
▁पड	-11813
▁brain	-11814
▁offices	-11815
▁principal	-11816
पादित	-11817
▁Best	-11818
▁ज़कात	-11819
▁ट्रैक	-11820
▁रसायन	-11821
▁felicit	-11822
▁advanced	-11823
अब	-11824
anta	-11825
▁Ter	-11826
▁पंख	-11827
▁brief	-11828
▁heads	-11829
▁marry	-11830
▁sweet	-11831
▁पार्क	-11832
▁AP	-11833
umer	-11834
▁hrs	-11835
▁बचत	-11836
▁train	-11837
▁theory	-11838
▁पहाड़ी	-11839
▁स्वभाव	-11840
▁संशोधित	-11841
▁प्रयोगशाला	-11842
▁Ka	-11843
▁पोत	-11844
▁मानी	-11845
▁Close	-11846
▁पंडित	-11847
unction	-11848
ien	-11849
शित	-11850
▁Ele	-11851
▁dog	-11852
▁Sikh	-11853
▁चट्ट	-11854
▁डराने	-11855
▁fourth	-11856
▁turning	-11857
▁अनुपालन	-11858
▁जातियों	-11859
▁वाक़िफ़	-11860
▁category	-11861
LE	-11862
je	-11863
तोष	-11864
▁इम	-11865
बूती	-11866
marks	-11867
▁कमरे	-11868
▁Forest	-11869
99	-11870
▁Exe	-11871
▁tim	-11872
▁बाहम	-11873
ndered	-11874
▁ritual	-11875
▁अनुसूची	-11876
▁Agriculture	-11877
तरे	-11878
▁नक	-11879
oles	-11880
ज़ाम	-11881
osers	-11882
plete	-11883
▁पांड	-11884
▁वारिस	-11885
▁मित्रों	-11886
▁thereafter	-11887
नें	-11888
▁lif	-11889
▁अलब	-11890
ansion	-11891
▁Force	-11892
▁Rural	-11893
▁discl	-11894
▁width	-11895
▁commod	-11896
▁ईमानवाले	-11897
▁Pay	-11898
▁परो	-11899
.2019	-11900
▁Link	-11901
▁मासिक	-11902
▁Choose	-11903
▁आउटपुट	-11904
▁Similar	-11905
IG	-11906
गारी	-11907
▁Anj	-11908
▁ble	-11909
▁Univers	-11910
▁whenever	-11911
yl	-11912
ym	-11913
▁तह	-11914
▁Bin	-11915
▁खनि	-11916
▁1000	-11917
▁mock	-11918
cutive	-11919
▁links	-11920
▁throw	-11921
▁fertil	-11922
▁तापमान	-11923
OT	-11924
eal	-11925
▁एयर	-11926
▁blue	-11927
खु	-11928
ंजा	-11929
▁Small	-11930
▁simpl	-11931
▁दरिया	-11932
▁मददगार	-11933
▁occurred	-11934
▁committee	-11935
avid	-11936
पट्टी	-11937
▁पौधे	-11938
▁संवे	-11939
▁सम्रा	-11940
▁Compan	-11941
▁Nature	-11942
▁broken	-11943
▁desktop	-11944
▁पुरुषों	-11945
▁हैदराबाद	-11946
▁Foundation	-11947
याद	-11948
elve	-11949
▁Produ	-11950
▁forgot	-11951
▁Chinese	-11952
लै	-11953
दृश्य	-11954
acific	-11955
▁categ	-11956
▁coast	-11957
▁बढ़ते	-11958
▁भर्ती	-11959
डन	-11960
agh	-11961
mer	-11962
NAME	-11963
▁whomever	-11964
13	-11965
खाव	-11966
▁झुक	-11967
▁जहाज	-11968
▁फ्लै	-11969
ranath	-11970
▁निवार	-11971
▁वर्णित	-11972
▁अत्याचार	-11973
▁temporary	-11974
tes	-11975
roll	-11976
▁crow	-11977
ladesh	-11978
▁बुलाया	-11979
▁markets	-11980
▁elections	-11981
▁processes	-11982
hets	-11983
▁जीत	-11984
rafts	-11985
▁stre	-11986
▁पिला	-11987
▁मातृ	-11988
▁oblig	-11989
▁adjust	-11990
▁Article	-11991
▁इंजीनिय	-11992
▁Believers	-11993
▁Ye	-11994
ख़बरी	-11995
▁Muse	-11996
▁gate	-11997
▁आश्व	-11998
▁अत्याचारी	-11999
ज़ि	-12000
समें	-12001
▁bind	-12002
▁देगी	-12003
▁परिक	-12004
▁पोजी	-12005
▁बचाने	-12006
▁मानवता	-12007
▁Independence	-12008
▁10,	-12009
ख़ेरत	-12010
▁लड़की	-12011
▁इसीलिए	-12012
▁एकीकृत	-12013
▁penalty	-12014
▁सरपरस्त	-12015
yr	-12016
▁UT	-12017
▁अख	-12018
onds	-12019
▁upgr	-12020
▁सोने	-12021
▁न्यायिक	-12022
है	-12023
ping	-12024
▁श्व	-12025
ब्लिक	-12026
्लैंड	-12027
▁गहरे	-12028
▁संतु	-12029
▁रूपों	-12030
▁लोकता	-12031
▁वापसी	-12032
▁analysis	-12033
▁judgment	-12034
▁तमिलनाडु	-12035
▁displayed	-12036
▁properties	-12037
UM	-12038
oot	-12039
wan	-12040
पानी	-12041
▁mad	-12042
▁काश	-12043
▁वास	-12044
▁Adam	-12045
▁Vice	-12046
▁मंडल	-12047
▁इनपुट	-12048
▁पंचाय	-12049
▁सकेगी	-12050
▁filter	-12051
▁seemed	-12052
बूझ	-12053
ster	-12054
▁बहा	-12055
▁फज़ल	-12056
▁union	-12057
बूर	-12058
क्की	-12059
▁नती	-12060
न्हीं	-12061
▁विनाश	-12062
▁reveal	-12063
▁फ्रांस	-12064
▁समाहित	-12065
▁Eastern	-12066
▁arrived	-12067
चिक	-12068
राशि	-12069
बोर्ड	-12070
▁Signs	-12071
▁शिल्प	-12072
▁Speaker	-12073
▁महाराजा	-12074
▁creative	-12075
▁हिंदुस्तान	-12076
xx	-12077
हु	-12078
लित	-12079
atio	-12080
ोनें	-12081
▁Sud	-12082
▁उपे	-12083
▁चमक	-12084
▁तुर्की	-12085
▁दूरस्थ	-12086
▁सिंचाई	-12087
▁undertaken	-12088
ola	-12089
याल	-12090
▁alt	-12091
▁curs	-12092
▁rout	-12093
▁suit	-12094
्रोतों	-12095
▁क़रीब	-12096
▁कार्ब	-12097
▁लिखें	-12098
▁disbelief	-12099
▁movements	-12100
▁temperature	-12101
टाई	-12102
रीन	-12103
ोजक	-12104
ipes	-12105
anish	-12106
▁काले	-12107
▁उच्चतर	-12108
▁सम्मानित	-12109
ौरन	-12110
▁Mos	-12111
▁surre	-12112
▁तैयारी	-12113
▁परिवेश	-12114
-#-#-#-#	-12115
sha	-12116
ानत	-12117
ंतिक	-12118
quiry	-12119
▁बहाद	-12120
▁मुख़	-12121
▁जापान	-12122
▁प्रोजेक्ट	-12123
अच्छ	-12124
सूची	-12125
▁आमाल	-12126
▁ज़रिए	-12127
▁absence	-12128
▁accused	-12129
▁#-#-#-#-#	-12130
uit	-12131
▁Read	-12132
▁pled	-12133
▁आबंट	-12134
▁backs	-12135
▁जायेंगे	-12136
▁Settings	-12137
▁informed	-12138
lude	-12139
▁loans	-12140
▁pride	-12141
▁sevent	-12142
▁functioning	-12143
’,	-12144
hus	-12145
▁Az	-12146
akti	-12147
ंबित	-12148
▁दाम	-12149
aints	-12150
▁orph	-12151
olkata	-12152
▁inhab	-12153
▁mostly	-12154
▁journal	-12155
▁समितियों	-12156
OM	-12157
बाजी	-12158
श्रे	-12159
▁leads	-12160
व्यवहार	-12161
▁Divine	-12162
▁liquid	-12163
▁capable	-12164
▁शैक्षणिक	-12165
“”	-12166
▁End	-12167
▁sad	-12168
▁फिट	-12169
▁फीस	-12170
▁1998	-12171
▁roof	-12172
▁अकार	-12173
▁अनाज	-12174
संरचना	-12175
▁poets	-12176
▁व्युत्	-12177
▁Options	-12178
▁tomorrow	-12179
▁पट	-12180
▁१५	-12181
पंथी	-12182
▁सकी	-12183
▁runs	-12184
▁zero	-12185
▁सिंध	-12186
▁Aware	-12187
▁पोस्ट	-12188
▁center	-12189
▁sorrow	-12190
▁इन्सान	-12191
▁accompan	-12192
▁environmental	-12193
▁बहस	-12194
▁फ्रे	-12195
▁अकेला	-12196
▁जादूगर	-12197
▁परिभाषा	-12198
▁साक्ष्य	-12199
zz	-12200
▁plans	-12201
▁अग्नि	-12202
▁मौलिक	-12203
▁comment	-12204
▁immense	-12205
▁सावधानी	-12206
▁applicable	-12207
.09	-12208
संघ	-12209
king	-12210
oked	-12211
▁fifty	-12212
▁multi	-12213
▁Judgment	-12214
ART	-12215
uity	-12216
पोषण	-12217
▁नवा	-12218
oring	-12219
▁aside	-12220
▁186	-12221
sible	-12222
▁cris	-12223
निर्भर	-12224
▁संदेय	-12225
▁नवम्बर	-12226
▁सम्बंध	-12227
▁Limited	-12228
▁expenses	-12229
▁organizations	-12230
गरी	-12231
शोथ	-12232
▁pu	-12233
▁झि	-12234
▁धम	-12235
char	-12236
▁अवय	-12237
▁Circ	-12238
▁उन्म	-12239
▁डालें	-12240
▁मानता	-12241
▁bottom	-12242
RE	-12243
▁Gr	-12244
ibly	-12245
asant	-12246
विचार	-12247
▁रखकर	-12248
edient	-12249
▁deity	-12250
ourable	-12251
raction	-12252
▁differences	-12253
▁कोष	-12254
▁Perm	-12255
aviour	-12256
▁fulfil	-12257
▁अमरीकी	-12258
▁महाभारत	-12259
▁governments	-12260
De	-12261
▁बीस	-12262
▁इच्छ	-12263
कलापों	-12264
▁girls	-12265
▁कुफ्र	-12266
▁तरीकों	-12267
▁Nations	-12268
▁Hyderabad	-12269
▁possession	-12270
▁वैज्ञानिकों	-12271
सेना	-12272
▁खून	-12273
osite	-12274
▁वरीय	-12275
▁losers	-12276
▁अभिदाता	-12277
▁employee	-12278
▁Principal	-12279
▁compensation	-12280
.08	-12281
▁1"	-12282
सलों	-12283
stood	-12284
▁सहारा	-12285
▁Awards	-12286
▁French	-12287
▁पोजीशन	-12288
▁व्यस्त	-12289
PC	-12290
pto	-12291
क्‍	-12292
जिन	-12293
▁जू	-12294
▁उपास	-12295
▁नस्ल	-12296
▁लंबाई	-12297
▁शानदार	-12298
स्ट्रेलिया	-12299
▁चाँ	-12300
▁Oper	-12301
▁shad	-12302
▁गाँव	-12303
▁दीक्षा	-12304
▁निकालने	-12305
▁apostles	-12306
▁represents	-12307
apa	-12308
nov	-12309
▁Bur	-12310
▁परत	-12311
▁sequ	-12312
▁Apost	-12313
▁horse	-12314
▁expert	-12315
▁grieve	-12316
▁Institut	-12317
▁humanity	-12318
फाई	-12319
▁Tab	-12320
ंतरित	-12321
च्छिक	-12322
▁झुका	-12323
criber	-12324
▁कीजिए	-12325
▁संतोष	-12326
▁cricket	-12327
▁fulfilled	-12328
▁हस्तक्षेप	-12329
▁sustenance	-12330
▁hurt	-12331
▁Allow	-12332
▁चिन्ह	-12333
▁सैन्य	-12334
▁हटाएँ	-12335
▁Subhas	-12336
▁fed	-12337
▁Food	-12338
▁दरबार	-12339
▁worlds	-12340
▁विद्रोह	-12341
▁outstanding	-12342
▁automatically	-12343
निस	-12344
लास	-12345
pers	-12346
▁सतत	-12347
urved	-12348
while	-12349
▁पदों	-12350
▁पुकारा	-12351
तुम्हारे	-12352
▁apostle	-12353
▁इंजीनियर	-12354
ena	-12355
ename	-12356
ested	-12357
▁श्वे	-12358
दाताओं	-12359
▁concl	-12360
▁exhib	-12361
▁ढूंढें	-12362
▁Certain	-12363
▁sculpture	-12364
▁अट	-12365
book	-12366
oman	-12367
isher	-12368
▁गुजर	-12369
र्दू	-12370
ेंडर	-12371
▁mel	-12372
▁उठे	-12373
iated	-12374
▁Tool	-12375
▁कायम	-12376
▁दलील	-12377
▁simply	-12378
operative	-12379
▁प्रसंस्करण	-12380
▁,	-12381
uli	-12382
ंधन	-12383
▁पान	-12384
asters	-12385
विमर्श	-12386
▁पथभ्र	-12387
▁बोलते	-12388
▁extremely	-12389
▁प्रक्रियाओं	-12390
देशों	-12391
▁लाएँ	-12392
active	-12393
▁deeply	-12394
ज़ख़	-12395
▁पाप	-12396
▁फार	-12397
▁रामा	-12398
▁decor	-12399
▁walls	-12400
▁मुद्दे	-12401
▁deleted	-12402
क्कर	-12403
देशक	-12404
लयों	-12405
wered	-12406
▁शर्त	-12407
▁औरतें	-12408
▁Museum	-12409
▁formal	-12410
▁विक्रय	-12411
▁अवधारणा	-12412
▁Password	-12413
▁entirely	-12414
21	-12415
▁Ban	-12416
▁गाँ	-12417
वस्तु	-12418
हारिक	-12419
▁1990	-12420
▁उतनी	-12421
▁कॉपी	-12422
▁तकलीफ	-12423
▁illust	-12424
▁narrow	-12425
otton	-12426
▁Line	-12427
▁fuel	-12428
▁Support	-12429
▁equally	-12430
▁प्रतिफल	-12431
▁प्रतिकूल	-12432
▁creatures	-12433
▁सकारात्मक	-12434
iform	-12435
▁दाहिने	-12436
▁formation	-12437
▁commission	-12438
▁wrongdoers	-12439
▁contributions	-12440
प्रद	-12441
▁sor	-12442
▁तिल	-12443
▁arbit	-12444
▁Narendra	-12445
▁starting	-12446
▁व्यवस्थित	-12447
alam	-12448
▁Gan	-12449
▁एल्	-12450
▁बंदर	-12451
▁Chrome	-12452
▁survey	-12453
▁संतुलन	-12454
▁वनस्पति	-12455
▁allowance	-12456
▁belonging	-12457
gor	-12458
▁Kor	-12459
▁वसू	-12460
▁cool	-12461
▁sees	-12462
▁एजेंस	-12463
▁sexual	-12464
▁कमज़ोर	-12465
▁टर्मिन	-12466
▁निष्ठा	-12467
▁proposal	-12468
्यक	-12469
▁Lal	-12470
▁खात	-12471
▁Init	-12472
▁Video	-12473
▁अंकित	-12474
▁strive	-12475
▁explain	-12476
द्दीन	-12477
▁aspir	-12478
▁प्रसाद	-12479
▁refused	-12480
▁उल्लिखित	-12481
▁समुदायों	-12482
▁chargeable	-12483
▁distinguished	-12484
PRO	-12485
ंदगी	-12486
चन्द	-12487
पत्ति	-12488
▁offers	-12489
▁कोशिकाओं	-12490
▁Scheduled	-12491
col	-12492
hel	-12493
edia	-12494
स्‍त	-12495
▁flower	-12496
▁impart	-12497
▁प्रतिदिन	-12498
▁opposition	-12499
▁जाह	-12500
▁सरी	-12501
▁सच्ची	-12502
▁Access	-12503
▁directed	-12504
▁क्रियान्व	-12505
केल	-12506
enous	-12507
▁1948	-12508
▁कारक	-12509
▁दर्जे	-12510
▁Related	-12511
▁composed	-12512
)!	-12513
▁2)	-12514
रखाव	-12515
▁आकलन	-12516
▁Award	-12517
▁absor	-12518
▁tools	-12519
▁transp	-12520
तापूर्वक	-12521
▁विश्वसनीय	-12522
▁architecture	-12523
खों	-12524
पीएस	-12525
▁भंग	-12526
▁Tele	-12527
▁pregn	-12528
▁डालते	-12529
▁owners	-12530
▁वस्तुत	-12531
▁दुर्भाग्य	-12532
▁proportion	-12533
▁transactions	-12534
ट्स	-12535
▁Fa	-12536
DUCT	-12537
▁lic	-12538
▁स्वप्न	-12539
▁Apostle	-12540
▁initiated	-12541
▁Association	-12542
ORS	-12543
yal	-12544
▁solid	-12545
theists	-12546
▁Kolkata	-12547
▁calling	-12548
▁दर्शाता	-12549
oll	-12550
xic	-12551
▁hom	-12552
orter	-12553
▁पाता	-12554
▁याची	-12555
▁wicked	-12556
▁परिचित	-12557
▁customer	-12558
▁Dar	-12559
▁Light	-12560
▁प्रको	-12561
▁प्रांत	-12562
▁Pacific	-12563
▁wherever	-12564
देशी	-12565
सम्बर	-12566
▁colon	-12567
▁dynam	-12568
issions	-12569
▁quickly	-12570
▁Mohammed	-12571
▁speaking	-12572
▁improvement	-12573
ग्न	-12574
षद्	-12575
ैंक	-12576
उसके	-12577
▁Has	-12578
क्राम	-12579
▁deed	-12580
▁क्लि	-12581
▁हलाल	-12582
coming	-12583
्रेडिट	-12584
▁equity	-12585
▁update	-12586
▁Further	-12587
▁digital	-12588
कलाप	-12589
▁tro	-12590
othes	-12591
▁radio	-12592
▁अभिगम	-12593
▁आँखों	-12594
▁मंजूरी	-12595
▁tourism	-12596
▁ग्राहकों	-12597
▁नामः	-12598
▁Jesus	-12599
▁towns	-12600
▁क्रमा	-12601
▁Mughal	-12602
▁border	-12603
▁specify	-12604
▁Economic	-12605
90	-12606
gent	-12607
वीडी	-12608
▁अफग	-12609
▁यानी	-12610
▁perce	-12611
▁believes	-12612
_01.	-12613
स्टी	-12614
▁झों	-12615
▁आखिर	-12616
▁विभेद	-12617
▁stones	-12618
▁मिश्रण	-12619
▁dealing	-12620
▁Industry	-12621
▁prostrate	-12622
तन्य	-12623
▁आँक	-12624
▁रखती	-12625
▁Joint	-12626
▁Deputy	-12627
▁निकाले	-12628
▁65	-12629
▁बडी	-12630
▁शोर	-12631
pring	-12632
▁steel	-12633
▁कामया	-12634
▁twelve	-12635
▁स्तरों	-12636
▁अलबत्ता	-12637
▁गांधीजी	-12638
▁Software	-12639
urb	-12640
▁Fr	-12641
▁जमी	-12642
orthy	-12643
▁हमला	-12644
▁prove	-12645
▁promoting	-12646
oding	-12647
▁Plug	-12648
▁मक्का	-12649
aration	-12650
▁fought	-12651
▁beneath	-12652
▁Bangladesh	-12653
टेल	-12654
बारी	-12655
▁12.	-12656
▁Mac	-12657
▁हमे	-12658
▁Hand	-12659
▁विनय	-12660
▁Status	-12661
▁पीड़ित	-12662
▁यथार्थ	-12663
▁Province	-12664
▁explained	-12665
OME	-12666
iplom	-12667
वाहित	-12668
▁Urdu	-12669
▁गुणा	-12670
▁प्रयोक्ता	-12671
▁sustainable	-12672
▁instructions	-12673
▁vig	-12674
▁नाइ	-12675
▁core	-12676
▁राजक	-12677
▁लानत	-12678
▁स्टेट	-12679
▁आह्वान	-12680
▁हाज़िर	-12681
▁council	-12682
▁sincere	-12683
▁admitted	-12684
▁प्रश्नों	-12685
▁hypocrites	-12686
abet	-12687
गोलिक	-12688
▁clay	-12689
▁कर्ण	-12690
▁Trade	-12691
▁theirs	-12692
▁pension	-12693
कन	-12694
END	-12695
ण्ट	-12696
मुच	-12697
▁Sl	-12698
▁पाकी	-12699
▁सीखने	-12700
▁career	-12701
▁railway	-12702
▁recited	-12703
▁remaining	-12704
धारित	-12705
▁Chen	-12706
▁Pras	-12707
▁Rece	-12708
▁औजार	-12709
▁Build	-12710
▁संभाल	-12711
▁Garden	-12712
▁Sardar	-12713
▁befall	-12714
▁happens	-12715
▁Insurance	-12716
time	-12717
फेसर	-12718
मुझे	-12719
▁खतरे	-12720
▁क्रमशः	-12721
▁Persian	-12722
▁Through	-12723
▁विभागों	-12724
▁जुड़	-12725
▁गुणों	-12726
▁conven	-12727
▁tribal	-12728
▁कलाकार	-12729
▁Schedule	-12730
▁व्यापारी	-12731
▁सम्पत्ति	-12732
▁Something	-12733
भौ	-12734
बों	-12735
▁पढ	-12736
▁बेट	-12737
▁race	-12738
remony	-12739
▁bones	-12740
▁delib	-12741
▁glory	-12742
▁scope	-12743
▁मान्य	-12744
▁Jawahar	-12745
▁गतिविधि	-12746
चु	-12747
सिंह	-12748
▁Tar	-12749
▁पोल	-12750
▁Unit	-12751
▁बोला	-12752
▁invited	-12753
▁श्रीमती	-12754
▁Christians	-12755
िद	-12756
ूकता	-12757
agers	-12758
▁बिता	-12759
earing	-12760
▁soldiers	-12761
aud	-12762
oes	-12763
पाई	-12764
▁sam	-12765
▁कहां	-12766
▁Never	-12767
▁owner	-12768
▁क़ाबू	-12769
▁जितने	-12770
▁leaving	-12771
▁आदमियों	-12772
▁Mahabhar	-12773
withstanding	-12774
▁Keep	-12775
▁LDAP	-12776
▁bone	-12777
▁pane	-12778
▁गुरू	-12779
▁मधुम	-12780
fortun	-12781
▁renew	-12782
▁asking	-12783
▁render	-12784
पैग़म्बर	-12785
tic	-12786
णिक	-12787
▁भूत	-12788
▁रोगों	-12789
▁लगाते	-12790
▁Common	-12791
▁Editor	-12792
▁घनिष्ठ	-12793
▁डिग्री	-12794
▁विवरणी	-12795
▁संभवतः	-12796
▁exports	-12797
▁trouble	-12798
▁रिकॉर्ड	-12799
▁Document	-12800
▁hur	-12801
itory	-12802
▁Geor	-12803
▁rising	-12804
▁अमरीका	-12805
▁Israeli	-12806
▁revenue	-12807
▁respectively	-12808
दादा	-12809
▁अहं	-12810
▁असली	-12811
▁राहे	-12812
▁स्वि	-12813
▁stick	-12814
▁thread	-12815
▁accompl	-12816
▁प्रतिलि	-12817
▁अनुमोदित	-12818
▁पुस्तकें	-12819
▁judgement	-12820
▁प्रासंगिक	-12821
डीई	-12822
that	-12823
▁unp	-12824
▁holy	-12825
▁actor	-12826
▁एजेंसी	-12827
LS	-12828
▁bag	-12829
▁pull	-12830
▁अक्ट	-12831
uality	-12832
▁सूचित	-12833
▁obtain	-12834
▁जर्मनी	-12835
▁immediate	-12836
▁Look	-12837
▁palm	-12838
▁evolution	-12839
छो	-12840
कर्म	-12841
▁hat	-12842
र्वेद	-12843
▁1996	-12844
▁Full	-12845
▁flat	-12846
▁कैसी	-12847
स्परिक	-12848
▁हार्ड	-12849
▁लेखकों	-12850
▁writers	-12851
▁क्रेडिट	-12852
▁प्रभार्य	-12853
▁न्यायालयों	-12854
षे	-12855
▁ves	-12856
▁गंत	-12857
▁डूब	-12858
▁नरे	-12859
▁Note	-12860
▁depth	-12861
▁twice	-12862
▁satisfied	-12863
▁गुज़	-12864
▁split	-12865
▁तीर्थ	-12866
▁recite	-12867
▁tissue	-12868
▁संपन्न	-12869
▁सिद्धान्त	-12870
cts	-12871
▁फौ	-12872
aved	-12873
उनकी	-12874
नहीं	-12875
▁spr	-12876
▁माय	-12877
▁Babu	-12878
▁उग्र	-12879
▁जंगल	-12880
▁चलाया	-12881
▁प्रजनन	-12882
ार्थियों	-12883
▁overall	-12884
▁पुकारते	-12885
▁सम्बन्धित	-12886
लांग	-12887
▁adj	-12888
▁औषध	-12889
▁सिं	-12890
inter	-12891
▁breed	-12892
▁crisis	-12893
▁recognition	-12894
र्जन	-12895
▁चावल	-12896
▁क़ादिर	-12897
▁चैतन्य	-12898
pes	-12899
▁KDE	-12900
▁लार	-12901
▁cere	-12902
▁कट्ट	-12903
▁साहब	-12904
▁मिस्र	-12905
▁मुताब	-12906
▁उपायों	-12907
▁invalid	-12908
▁किन्हीं	-12909
▁drinking	-12910
▁contribute	-12911
osa	-12912
▁(5	-12913
▁घुट	-12914
▁Noble	-12915
▁drown	-12916
▁पक्षी	-12917
▁counsel	-12918
▁प्रशांत	-12919
▁framework	-12920
▁contemporary	-12921
▁cra	-12922
▁करम	-12923
▁नवी	-12924
लियों	-12925
▁wear	-12926
▁निधन	-12927
▁index	-12928
▁spect	-12929
▁संपदा	-12930
▁ग्रस्त	-12931
▁भौगोलिक	-12932
▁offering	-12933
▁विद्वानों	-12934
ल्य	-12935
▁धा	-12936
illa	-12937
ल्लम	-12938
वेशन	-12939
▁hen	-12940
▁ईरान	-12941
▁detailed	-12942
तब	-12943
oval	-12944
पोर्ट	-12945
ब्रेरी	-12946
▁Shiva	-12947
▁drama	-12948
▁layer	-12949
▁अंग्रेज	-12950
▁जवाहरलाल	-12951
मौ	-12952
▁{1}	-12953
▁rect	-12954
▁अमान	-12955
▁एकदम	-12956
▁कृति	-12957
▁तात्	-12958
▁शांत	-12959
▁Disable	-12960
▁राजभाषा	-12961
▁communications	-12962
ाफ	-12963
ads	-12964
ासा	-12965
▁शराब	-12966
▁Later	-12967
▁तसबीह	-12968
▁pieces	-12969
▁answered	-12970
▁Ans	-12971
▁tea	-12972
inder	-12973
विष्ट	-12974
▁1980	-12975
father	-12976
▁सर्वि	-12977
▁प्रशास	-12978
▁facilitate	-12979
वाँ	-12980
ायें	-12981
▁Vol	-12982
▁bug	-12983
कियों	-12984
▁Take	-12985
▁ज़बर	-12986
▁Table	-12987
▁depends	-12988
▁harvest	-12989
▁employed	-12990
▁component	-12991
▁neighbour	-12992
Ad	-12993
kan	-12994
mic	-12995
कना	-12996
विन	-12997
ीदा	-12998
▁खज	-12999
▁era	-13000
▁icon	-13001
▁आश्र	-13002
▁labor	-13003
▁lying	-13004
▁Except	-13005
▁tongue	-13006
▁वरीयता	-13007
▁settlement	-13008
▁personality	-13009
▁कस	-13010
room	-13011
काया	-13012
न्तर	-13013
भक्त	-13014
▁map	-13015
▁(200	-13016
▁legs	-13017
▁रिज़	-13018
▁आंशिक	-13019
▁उतारी	-13020
▁stayed	-13021
▁अर्पित	-13022
▁trading	-13023
▁आरक्षित	-13024
▁distributed	-13025
▁लोकतांत्रिक	-13026
▁availability	-13027
▁तम	-13028
▁shar	-13029
▁दार्	-13030
▁भरें	-13031
ensity	-13032
▁उर्दू	-13033
▁लिखते	-13034
▁हजारों	-13035
▁continues	-13036
काएँ	-13037
▁टाल	-13038
▁डिब	-13039
▁Army	-13040
▁कृपा	-13041
▁प्रोफेसर	-13042
▁understood	-13043
▁प्रस्तावित	-13044
▁\	-13045
AGE	-13046
▁Lt	-13047
▁रॉ	-13048
ooth	-13049
▁BAR	-13050
▁Rab	-13051
▁hyd	-13052
▁टेक्	-13053
Indeed	-13054
▁सचमुच	-13055
▁भगवान्	-13056
▁प्रतिमा	-13057
▁kn	-13058
जीवी	-13059
algam	-13060
▁Term	-13061
▁दुःख	-13062
▁alarm	-13063
▁वर्मा	-13064
▁वसूली	-13065
version	-13066
▁Madhya	-13067
▁Member	-13068
▁couple	-13069
▁तत्त्व	-13070
▁intended	-13071
▁restrict	-13072
ona	-13073
rer	-13074
केंड	-13075
▁Dur	-13076
▁Main	-13077
▁ends	-13078
▁ज्यो	-13079
दायित्व	-13080
ोक्ताओं	-13081
▁firmly	-13082
▁मज़बूत	-13083
▁behaviour	-13084
▁revelation	-13085
आरए	-13086
▁43	-13087
list	-13088
व्यों	-13089
▁shop	-13090
▁Local	-13091
▁chain	-13092
▁दुकान	-13093
▁लिखना	-13094
▁preview	-13095
▁अक्टूबर	-13096
▁संलग्नक	-13097
▁फलस्वरूप	-13098
ds	-13099
ords	-13100
▁पूज	-13101
▁बरस	-13102
▁डाली	-13103
▁Malay	-13104
▁प्राप	-13105
▁affair	-13106
▁waters	-13107
▁संगणना	-13108
▁equality	-13109
बिल	-13110
▁1'	-13111
▁जॉ	-13112
anka	-13113
▁मक़	-13114
▁टाइप	-13115
▁thick	-13116
▁गर्मी	-13117
edience	-13118
▁acknow	-13119
▁वैकल्प	-13120
▁desired	-13121
▁consumer	-13122
▁पथभ्रष्ट	-13123
▁Assessing	-13124
▁कम्प्यूटर	-13125
हारी	-13126
▁400	-13127
Moses	-13128
owing	-13129
▁flood	-13130
▁उठाना	-13131
▁appell	-13132
▁hardly	-13133
▁शेयरों	-13134
▁regarded	-13135
▁solutions	-13136
▁wa	-13137
ayer	-13138
▁ज्व	-13139
ushed	-13140
ष्कार	-13141
▁clouds	-13142
▁shaped	-13143
▁अभ्यास	-13144
▁सेक्टर	-13145
▁arising	-13146
▁judicial	-13147
OV	-13148
mun	-13149
▁(0	-13150
care	-13151
riya	-13152
लेखन	-13153
▁अद्व	-13154
▁जाया	-13155
▁अपराधी	-13156
▁नदियों	-13157
▁charity	-13158
▁repeated	-13159
▁celebrated	-13160
jan	-13161
एमई	-13162
गुण	-13163
urally	-13164
▁दीजिए	-13165
▁afflict	-13166
▁conceal	-13167
▁derived	-13168
▁sisters	-13169
▁communal	-13170
▁अधिकारिता	-13171
▁ष	-13172
ded	-13173
▁Upd	-13174
▁Vir	-13175
▁आपसी	-13176
▁करेंः	-13177
▁दशकों	-13178
ishment	-13179
▁slight	-13180
▁evident	-13181
▁hardship	-13182
ruit	-13183
▁rub	-13184
▁gift	-13185
▁किले	-13186
▁Green	-13187
▁जागरूकता	-13188
▁वैकल्पिक	-13189
DR	-13190
On	-13191
ेड	-13192
ेस	-13193
नेह	-13194
▁Ra	-13195
lock	-13196
▁Oft	-13197
▁अहि	-13198
▁खबर	-13199
▁जैन	-13200
▁मेह	-13201
▁gall	-13202
▁प्लस	-13203
▁मोटर	-13204
▁सेंट	-13205
▁आंकड़ा	-13206
▁पुराना	-13207
▁इकाइयों	-13208
▁computing	-13209
▁religions	-13210
▁पारस्परिक	-13211
उसकी	-13212
▁अमर	-13213
▁उपज	-13214
ector	-13215
▁ties	-13216
▁झूठे	-13217
▁Email	-13218
▁ships	-13219
▁Comput	-13220
▁आधारभूत	-13221
▁definite	-13222
▁interested	-13223
▁वास्तविकता	-13224
▁arrangement	-13225
key	-13226
ming	-13227
शोधन	-13228
▁Sem	-13229
▁Priv	-13230
▁eggs	-13231
▁lamp	-13232
▁अर्ज	-13233
▁शासक	-13234
▁Liter	-13235
▁seeds	-13236
▁विवेक	-13237
▁दुश्मन	-13238
▁Himself	-13239
▁database	-13240
▁translated	-13241
▁तृ	-13242
hetic	-13243
▁पड़ो	-13244
▁अर्जन	-13245
▁रामायण	-13246
▁customers	-13247
▁intelligence	-13248
Who	-13249
ulty	-13250
▁POP	-13251
▁pert	-13252
▁अतीत	-13253
▁Innov	-13254
▁stake	-13255
▁निगाह	-13256
▁फायदे	-13257
▁लड़का	-13258
compass	-13259
▁driven	-13260
▁हिमाचल	-13261
▁diverse	-13262
▁difficulty	-13263
▁comprehensive	-13264
Why	-13265
्रीम	-13266
▁वेद	-13267
▁2018	-13268
▁चलती	-13269
▁grain	-13270
▁acquisition	-13271
समा	-13272
garh	-13273
चेंज	-13274
्‍या	-13275
▁Deb	-13276
▁होगे	-13277
▁alive	-13278
▁भांति	-13279
▁वैदिक	-13280
ानिस्तान	-13281
▁apparent	-13282
▁buildings	-13283
▁traditions	-13284
▁देशवासियों	-13285
75	-13286
पद	-13287
सास	-13288
▁Run	-13289
▁ease	-13290
▁लिपि	-13291
ounded	-13292
▁बेटों	-13293
▁strategy	-13294
▁पूर्ववर्ती	-13295
tr	-13296
iri	-13297
हक़	-13298
▁'.	-13299
appe	-13300
इयां	-13301
▁fet	-13302
▁पनाह	-13303
▁भक्त	-13304
क्तियों	-13305
▁फोल्डर	-13306
▁दिसम्बर	-13307
▁guidelines	-13308
▁11.	-13309
▁hit	-13310
inces	-13311
▁Card	-13312
▁Gold	-13313
▁आपदा	-13314
▁Anjuta	-13315
▁persist	-13316
▁उत्पादक	-13317
▁suggested	-13318
▁worshipped	-13319
▁घेर	-13320
▁doll	-13321
▁ग्रे	-13322
▁बनना	-13323
▁दूँगा	-13324
▁crores	-13325
▁सहयोगी	-13326
▁दिखायें	-13327
▁Buddhist	-13328
▁hun	-13329
▁अखिल	-13330
▁विजे	-13331
▁Laksh	-13332
▁तीनों	-13333
▁detail	-13334
▁सम्राट	-13335
▁Friends	-13336
▁servant	-13337
▁पसंदीदा	-13338
▁efficiency	-13339
▁व्यावहारिक	-13340
बाई	-13341
▁Due	-13342
▁गईं	-13343
ख्वाह	-13344
ालयों	-13345
▁sets	-13346
▁होगें	-13347
▁संगठित	-13348
▁collected	-13349
▁प्रोटोकॉल	-13350
▁अरु	-13351
▁आशय	-13352
▁span	-13353
▁symp	-13354
▁हलाक	-13355
▁उत्तेज	-13356
▁overcome	-13357
▁विज्ञप्ति	-13358
irs	-13359
▁अलं	-13360
▁रहम	-13361
▁लिप	-13362
▁कहें	-13363
▁budget	-13364
▁naught	-13365
esterday	-13366
▁आतंकवादी	-13367
▁improving	-13368
HT	-13369
NA	-13370
▁AN	-13371
what	-13372
▁bat	-13373
▁सिक	-13374
ब्ल्यू	-13375
▁observe	-13376
▁अधिसूचित	-13377
▁उपलब्धता	-13378
▁estimated	-13379
▁preferred	-13380
▁प्रतिष्ठा	-13381
▁6,	-13382
▁तद	-13383
▁नज	-13384
▁Lat	-13385
साइटी	-13386
▁fram	-13387
▁डालने	-13388
▁entrust	-13389
▁achievement	-13390
ECT	-13391
पेश	-13392
▁Ja	-13393
भूषण	-13394
लामी	-13395
▁आएँ	-13396
्रेता	-13397
▁Land	-13398
▁फसलों	-13399
▁योजनाएं	-13400
▁उन्होनें	-13401
गीय	-13402
साई	-13403
▁आधा	-13404
▁Tell	-13405
▁onto	-13406
▁Count	-13407
▁साधनों	-13408
▁discussed	-13409
▁enjoyment	-13410
iel	-13411
▁ISO	-13412
▁fix	-13413
▁pit	-13414
▁अजी	-13415
▁समू	-13416
▁Test	-13417
▁पृथक	-13418
▁सिरे	-13419
▁hills	-13420
▁Academ	-13421
▁Window	-13422
▁victim	-13423
▁numerous	-13424
asp	-13425
भाषण	-13426
▁dan	-13427
▁झील	-13428
▁busy	-13429
▁exch	-13430
▁Being	-13431
▁Afghanistan	-13432
arh	-13433
वही	-13434
जनों	-13435
▁Lot	-13436
▁इंत	-13437
▁ख़ा	-13438
rahim	-13439
ड़ीसा	-13440
▁चढ़ा	-13441
▁हटाने	-13442
▁Credit	-13443
▁begins	-13444
▁गारंटी	-13445
▁अंग्रेजों	-13446
▁repentance	-13447
ny	-13448
ेंड	-13449
▁मण	-13450
iger	-13451
opal	-13452
▁सकल	-13453
▁आएगी	-13454
▁गद्य	-13455
▁अंततः	-13456
▁प्लेट	-13457
▁judges	-13458
▁अपनाने	-13459
▁advised	-13460
▁कार्यरत	-13461
▁सत्यापित	-13462
▁Palestinian	-13463
iche	-13464
▁Spec	-13465
▁clust	-13466
otes	-13467
▁1991	-13468
▁grew	-13469
▁roads	-13470
▁spite	-13471
▁facing	-13472
बाही	-13473
ुमान	-13474
▁सड़	-13475
▁पैसा	-13476
▁बनता	-13477
▁filed	-13478
▁floor	-13479
▁चुकता	-13480
▁Houses	-13481
▁forests	-13482
▁expansion	-13483
▁गढ़	-13484
नीतिक	-13485
▁प्रॉ	-13486
▁वन्य	-13487
▁outer	-13488
▁एहसान	-13489
▁Annual	-13490
▁चीज़ें	-13491
▁प्रतिबि	-13492
45	-13493
ums	-13494
०००	-13495
▁असल	-13496
बरदार	-13497
▁समूद	-13498
▁गंतव्य	-13499
▁दक्षता	-13500
▁देखोगे	-13501
▁शास्त्र	-13502
▁millions	-13503
▁proclaim	-13504
▁recognized	-13505
▁consumption	-13506
वत्	-13507
्टा	-13508
▁rot	-13509
▁Jain	-13510
▁Size	-13511
▁eval	-13512
▁lect	-13513
▁aband	-13514
▁allot	-13515
▁जीवों	-13516
▁flight	-13517
▁Ask	-13518
▁Bet	-13519
▁मारा	-13520
▁यहीं	-13521
▁माइक्रो	-13522
▁fib	-13523
▁भरने	-13524
▁बताता	-13525
▁भरपूर	-13526
▁Pandit	-13527
▁housing	-13528
▁सोसाइटी	-13529
▁प्रमाणित	-13530
▁integrated	-13531
▁प्रावधानों	-13532
izer	-13533
▁सूच	-13534
iliar	-13535
▁pick	-13536
ashing	-13537
icipal	-13538
▁पहलुओं	-13539
▁साक्षी	-13540
▁permitted	-13541
▁कार्यालयों	-13542
▁considerable	-13543
▁fle	-13544
ंक्शन	-13545
▁David	-13546
▁Global	-13547
▁linked	-13548
▁Profess	-13549
▁telephone	-13550
▁inspiration	-13551
ITY	-13552
ker	-13553
utt	-13554
▁vit	-13555
▁तेरा	-13556
▁संधि	-13557
▁तीसरा	-13558
▁masses	-13559
▁हथियार	-13560
▁Germany	-13561
▁व्यष्टि	-13562
▁imperial	-13563
▁improved	-13564
▁impossible	-13565
oli	-13566
▁Get	-13567
▁Pad	-13568
क्तिक	-13569
▁Road	-13570
▁मुल्क	-13571
▁क्रांतिक	-13572
▁highlight	-13573
▁investments	-13574
आत	-13575
ota	-13576
ंबे	-13577
▁हकदार	-13578
▁Commer	-13579
▁फरमाया	-13580
▁सम्पन्न	-13581
▁—	-13582
nan	-13583
▁बडे	-13584
▁Tham	-13585
▁phen	-13586
inance	-13587
▁Earth	-13588
▁pious	-13589
ificial	-13590
inating	-13591
▁mailing	-13592
▁प्रभावशाली	-13593
17	-13594
▁du	-13595
हरों	-13596
▁Left	-13597
दनी	-13598
उनके	-13599
▁buff	-13600
▁इरादा	-13601
welling	-13602
▁decree	-13603
▁felicitations	-13604
बहुत	-13605
▁Chait	-13606
▁stages	-13607
▁तथ्यों	-13608
▁सुन्दर	-13609
▁offence	-13610
▁meetings	-13611
▁reasonable	-13612
▁परिवर्तनों	-13613
.05	-13614
eer	-13615
▁Ce	-13616
----	-13617
▁झूठा	-13618
pelled	-13619
▁curse	-13620
▁signature	-13621
▁Dal	-13622
▁तुझ	-13623
entle	-13624
▁agent	-13625
▁observ	-13626
▁क़समें	-13627
▁दोज़ख़	-13628
▁सन्देह	-13629
▁Accounts	-13630
▁Committees	-13631
▁attachment	-13632
▁completion	-13633
24	-13634
YS	-13635
▁Dig	-13636
▁डिप	-13637
house	-13638
▁ईंधन	-13639
▁कट्टर	-13640
▁aggreg	-13641
▁spoken	-13642
▁vessel	-13643
▁yellow	-13644
▁amalgam	-13645
▁deposits	-13646
▁identify	-13647
▁आस्तियों	-13648
ारण	-13649
atar	-13650
र्ता	-13651
▁shel	-13652
▁वाहन	-13653
▁शंकर	-13654
▁लाभों	-13655
▁Energy	-13656
▁talking	-13657
▁worldly	-13658
▁राष्ट्रों	-13659
▁regulations	-13660
ण्	-13661
och	-13662
चाह	-13663
▁Jay	-13664
▁raw	-13665
▁ढूँ	-13666
त्रिम	-13667
तन्त्र	-13668
ributes	-13669
▁commence	-13670
▁excellence	-13671
)]	-13672
जत	-13673
वास्त	-13674
▁toler	-13675
▁जानना	-13676
▁मतभेद	-13677
▁बहादुर	-13678
▁Kingdom	-13679
▁Tourism	-13680
▁guardian	-13681
▁Similarly	-13682
आउट	-13683
थित	-13684
लाइ	-13685
anga	-13686
life	-13687
▁हां	-13688
▁कचरा	-13689
▁राज़ी	-13690
▁prohib	-13691
▁दार्शन	-13692
▁बिन्दु	-13693
▁disobey	-13694
▁पाकीज़ा	-13695
▁emphasis	-13696
▁प्रतिदान	-13697
▁steadfast	-13698
18	-13699
39	-13700
SA	-13701
एव	-13702
uru	-13703
▁पेय	-13704
▁audit	-13705
▁harmony	-13706
▁incurred	-13707
▁दस्तावेजों	-13708
asw	-13709
िरण	-13710
ोरि	-13711
pens	-13712
▁surg	-13713
▁Asian	-13714
▁adorn	-13715
▁armed	-13716
▁कीटों	-13717
justice	-13718
▁street	-13719
▁describ	-13720
▁स्रोतों	-13721
▁criminal	-13722
Be	-13723
राय	-13724
▁(10	-13725
▁Saty	-13726
▁दिमाग	-13727
▁Temple	-13728
▁acting	-13729
▁breath	-13730
▁farmer	-13731
▁अधिकृत	-13732
▁empower	-13733
▁willing	-13734
▁discharge	-13735
.2017	-13736
▁edge	-13737
▁कारा	-13738
▁Gupta	-13739
▁Integr	-13740
▁helper	-13741
▁टर्मिनल	-13742
▁आकांक्षा	-13743
▁55	-13744
▁via	-13745
▁zone	-13746
▁रहित	-13747
▁लंदन	-13748
▁लेबल	-13749
▁Level	-13750
▁sites	-13751
▁बताते	-13752
▁Follow	-13753
▁स्तरीय	-13754
▁Whatever	-13755
ँग	-13756
icent	-13757
orous	-13758
▁thor	-13759
▁मोड़	-13760
jection	-13761
▁Master	-13762
▁ठहराया	-13763
▁respite	-13764
▁लक्ष्यों	-13765
,–	-13766
ua	-13767
pat	-13768
umes	-13769
▁Rev	-13770
▁Tor	-13771
▁बेर	-13772
ected	-13773
▁Gree	-13774
▁उभार	-13775
▁मेहन	-13776
lement	-13777
▁idols	-13778
▁mirac	-13779
▁ratio	-13780
▁demands	-13781
▁पेट्रोल	-13782
▁remembrance	-13783
▁organisations	-13784
दूत	-13785
र्फ़	-13786
▁भूख	-13787
▁1997	-13788
▁Appe	-13789
▁गिनती	-13790
▁श्वेत	-13791
▁rebell	-13792
▁quantity	-13793
▁continuous	-13794
▁conservation	-13795
ador	-13796
iciary	-13797
▁crime	-13798
▁noble	-13799
▁उन्हे	-13800
▁भाग्य	-13801
विश्वास	-13802
▁warned	-13803
▁Cabinet	-13804
▁Calendar	-13805
▁ब्राह्मण	-13806
▁भव	-13807
mits	-13808
ुद्ध	-13809
ether	-13810
▁Phot	-13811
▁आईडी	-13812
▁बचने	-13813
▁mixed	-13814
▁रोकते	-13815
▁propag	-13816
▁starts	-13817
▁अंशदान	-13818
▁मुहम्मद	-13819
▁शीर्षिका	-13820
▁साझेदारी	-13821
ographical	-13822
▁faithless	-13823
▁constructed	-13824
?'	-13825
संख	-13826
पसंद	-13827
▁वाम	-13828
rease	-13829
ureau	-13830
▁आयकर	-13831
▁कमाई	-13832
▁गणित	-13833
▁Ambed	-13834
▁reprodu	-13835
▁कृतज्ञता	-13836
CS	-13837
▁बट	-13838
otal	-13839
▁mov	-13840
▁घास	-13841
जहन्न	-13842
सूत्र	-13843
▁ख़ौफ	-13844
वृद्धि	-13845
▁stamp	-13846
▁rulers	-13847
▁stored	-13848
▁खिलाड़ी	-13849
▁नकारात्मक	-13850
▁व्यापारिक	-13851
▁प्रतिबद्धता	-13852
▁representative	-13853
परा	-13854
▁टीका	-13855
▁भुला	-13856
▁बालों	-13857
▁Police	-13858
▁liberal	-13859
▁Ambedkar	-13860
▁interface	-13861
▁Jawaharlal	-13862
¤	-13863
aks	-13864
टिक	-13865
▁8,	-13866
▁दम	-13867
▁Equ	-13868
▁Fed	-13869
anath	-13870
▁None	-13871
▁impr	-13872
▁लाखों	-13873
▁डीवीडी	-13874
▁Subject	-13875
▁विचारधारा	-13876
itya	-13877
▁नकद	-13878
▁बहन	-13879
▁encry	-13880
▁समापन	-13881
▁परोक्ष	-13882
▁विडियो	-13883
▁Capital	-13884
▁paramet	-13885
▁फ़ाइलों	-13886
▁सलाहकार	-13887
▁स्वाधीन	-13888
▁अध्यक्षता	-13889
▁कार्यान्वित	-13890
ued	-13891
स्सा	-13892
पुरुष	-13893
▁भाइयों	-13894
▁violent	-13895
▁कानूनों	-13896
▁ख्वाहिश	-13897
▁disabled	-13898
▁irrigation	-13899
ंसक	-13900
▁वय	-13901
▁उलट	-13902
▁घात	-13903
organ	-13904
ranch	-13905
▁अपनाई	-13906
▁पुरूष	-13907
▁प्रबल	-13908
निर्माण	-13909
▁Online	-13910
▁allows	-13911
▁encompass	-13912
▁appearance	-13913
▁remarkable	-13914
▁whomsoever	-13915
▁उत्तरदायित्व	-13916
yas	-13917
क्ल	-13918
मरा	-13919
▁पचास	-13920
ounter	-13921
▁goals	-13922
▁ocean	-13923
PRODUCT	-13924
▁dispos	-13925
▁सारांश	-13926
▁touched	-13927
▁departments	-13928
इंड	-13929
कने	-13930
ियॉ	-13931
▁(*	-13932
▁1)	-13933
▁खर	-13934
▁पश	-13935
▁Bra	-13936
▁गीता	-13937
▁नर्म	-13938
▁पीछा	-13939
▁भाष्	-13940
▁राज़	-13941
ाधिकार	-13942
▁marks	-13943
▁ज्योति	-13944
▁मंत्रि	-13945
▁रचनात्मक	-13946
▁complaint	-13947
▁electronic	-13948
rum	-13949
▁होटल	-13950
▁defin	-13951
▁समझना	-13952
▁eastern	-13953
▁pointed	-13954
▁prepare	-13955
▁केंद्रों	-13956
▁satisfaction	-13957
कंप	-13958
लीन	-13959
▁bh	-13960
asty	-13961
▁बलि	-13962
▁मेघ	-13963
etary	-13964
संचार	-13965
▁acid	-13966
▁Manager	-13967
▁windows	-13968
ikh	-13969
lin	-13970
क़े	-13971
▁ho	-13972
odal	-13973
▁फुट	-13974
▁वसी	-13975
▁baby	-13976
▁vacc	-13977
▁पाना	-13978
▁नमूना	-13979
▁valley	-13980
▁Knowledge	-13981
▁voluntary	-13982
भोग	-13983
ocks	-13984
▁tag	-13985
▁पडे	-13986
ानिर्	-13987
▁hast	-13988
▁meat	-13989
▁टिकट	-13990
▁वांछ	-13991
▁चेन्न	-13992
▁college	-13993
▁involve	-13994
▁अनुक्रम	-13995
▁वस्तुएं	-13996
▁Himachal	-13997
▁notified	-13998
▁productivity	-13999
▁sed	-14000
▁scen	-14001
▁subt	-14002
▁अपार	-14003
▁चोरी	-14004
▁सीता	-14005
▁GNOME	-14006
▁अस्थि	-14007
▁पिछला	-14008
ॉग	-14009
aren	-14010
पर्य	-14011
▁Sab	-14012
▁ट्यूब	-14013
▁किराये	-14014
▁ensuring	-14015
▁transmission	-14016
बीन	-14017
▁rou	-14018
▁sav	-14019
▁van	-14020
▁ईंट	-14021
▁घाट	-14022
▁dawn	-14023
▁श्रो	-14024
▁कोर्ट	-14025
▁Connect	-14026
▁संक्रिया	-14027
▁securities	-14028
ेंच	-14029
ापरी	-14030
▁TRAN	-14031
▁doom	-14032
▁करूँ	-14033
▁सूरज	-14034
जीविका	-14035
▁पड़ते	-14036
▁पड़ने	-14037
▁struck	-14038
▁आख़ेरत	-14039
▁उड़ीसा	-14040
ellation	-14041
▁Bharati	-14042
▁प्रवासी	-14043
▁सौभाग्य	-14044
▁duration	-14045
▁personnel	-14046
▁difficulties	-14047
”;	-14048
लोक	-14049
▁Jh	-14050
▁टि	-14051
▁Way	-14052
uddin	-14053
▁Democ	-14054
▁older	-14055
▁बाक़ी	-14056
▁महानि	-14057
▁Source	-14058
▁आकर्षण	-14059
▁मानकों	-14060
▁प्रसारण	-14061
▁External	-14062
▁superior	-14063
▁Companies	-14064
▁recognize	-14065
IB	-14066
▁पन	-14067
▁tot	-14068
▁आदर	-14069
▁जाग	-14070
▁बचे	-14071
▁१९९	-14072
▁Banks	-14073
▁camel	-14074
▁falls	-14075
▁Ibrahim	-14076
▁इंग्लैंड	-14077
▁""	-14078
▁जता	-14079
▁नाह	-14080
▁1993	-14081
▁Farm	-14082
▁elim	-14083
▁मरियम	-14084
▁spring	-14085
▁convert	-14086
▁38	-14087
आईटी	-14088
ब्बा	-14089
▁बहि	-14090
atics	-14091
imony	-14092
▁Guard	-14093
▁tender	-14094
▁लोकसभा	-14095
▁Panchay	-14096
▁अभिभाषण	-14097
▁शिक्षित	-14098
▁स्वच्छता	-14099
▁स्थितियों	-14100
▁categories	-14101
▁competition	-14102
▁Agricultural	-14103
▁determination	-14104
किस	-14105
▁Amb	-14106
▁दिश	-14107
▁Four	-14108
▁York	-14109
▁enact	-14110
▁जिलों	-14111
▁मजबूर	-14112
izontal	-14113
▁silver	-14114
▁fulfill	-14115
▁Amendment	-14116
▁requested	-14117
▁प्रतिवादी	-14118
▁interpretation	-14119
acc	-14120
▁(6)	-14121
▁ब्रे	-14122
▁यहूद	-14123
▁वृत्ति	-14124
▁theatre	-14125
▁corporate	-14126
▁लाइब्रेरी	-14127
▁directions	-14128
’.	-14129
▁फो	-14130
तायात	-14131
▁तबाही	-14132
▁निकाह	-14133
▁पढ़ते	-14134
▁virtue	-14135
▁कुशलता	-14136
▁relatives	-14137
how	-14138
भाई	-14139
▁Od	-14140
emic	-14141
part	-14142
▁Dom	-14143
▁Tog	-14144
▁jobs	-14145
▁मौका	-14146
▁Ahmed	-14147
▁cried	-14148
▁finds	-14149
▁verse	-14150
▁कृत्रिम	-14151
▁भावनाओं	-14152
▁सुधारों	-14153
▁universe	-14154
▁anniversary	-14155
डू	-14156
ेरा	-14157
ल्ले	-14158
▁Lad	-14159
▁बिन	-14160
▁मचा	-14161
▁बर्फ	-14162
कारिता	-14163
▁aught	-14164
▁मनपसंद	-14165
▁degrees	-14166
▁herself	-14167
▁affection	-14168
ima	-14169
thi	-14170
पीसी	-14171
▁जुल	-14172
▁मला	-14173
▁भड़क	-14174
▁planned	-14175
▁देनेवाला	-14176
▁discussions	-14177
.“	-14178
anks	-14179
mail	-14180
▁इष्ट	-14181
▁Peace	-14182
▁अगरचे	-14183
▁क़रार	-14184
▁लगाकर	-14185
▁ऑफ़लाइन	-14186
▁देवताओं	-14187
▁employer	-14188
▁diversity	-14189
▁mechanism	-14190
▁participate	-14191
ूनी	-14192
aron	-14193
▁सोल	-14194
शुल्क	-14195
▁खनिज	-14196
▁metal	-14197
▁आस्था	-14198
▁Territ	-14199
▁परेशान	-14200
▁trained	-14201
▁भागीदार	-14202
▁writings	-14203
▁injustice	-14204
enn	-14205
िकीय	-14206
▁jail	-14207
▁pair	-14208
▁सौंद	-14209
vation	-14210
▁Vedic	-14211
▁divers	-14212
▁occurs	-14213
▁अकादमी	-14214
▁founded	-14215
▁strengthening	-14216
DP	-14217
षी	-14218
▁ढल	-14219
▁Fac	-14220
atell	-14221
their	-14222
▁upto	-14223
▁आवरण	-14224
▁आवेद	-14225
▁चाहो	-14226
▁मेमो	-14227
▁शल्य	-14228
▁Super	-14229
▁haply	-14230
▁Filter	-14231
▁addresses	-14232
▁executive	-14233
तिल	-14234
▁7,	-14235
ुलिप	-14236
▁अटल	-14237
▁एहद	-14238
▁तदन	-14239
▁तस्	-14240
▁पुल	-14241
▁डरता	-14242
▁sympt	-14243
▁usual	-14244
▁Spirit	-14245
▁chapter	-14246
▁बेहिश्त	-14247
▁सैनिकों	-14248
▁प्राधिकृत	-14249
▁enterprise	-14250
GP	-14251
कै	-14252
हद	-14253
तेह	-14254
usal	-14255
मुना	-14256
हवीं	-14257
्राव	-14258
▁Ang	-14259
▁ढेर	-14260
▁हाइ	-14261
स्फोट	-14262
▁अंडे	-14263
▁भव्य	-14264
▁Chenn	-14265
▁निचले	-14266
▁मिलना	-14267
▁संचित	-14268
▁Screen	-14269
▁दुर्लभ	-14270
▁realize	-14271
▁यातायात	-14272
▁accommod	-14273
obe	-14274
▁gn	-14275
▁१०	-14276
olic	-14277
wers	-14278
▁पेर	-14279
icted	-14280
योग्य	-14281
संबंध	-14282
▁आईटी	-14283
▁White	-14284
▁कैंसर	-14285
▁छुट्टी	-14286
▁सच्चाई	-14287
▁स्मारक	-14288
▁जरूरतों	-14289
▁vegetables	-14290
▁अपेक्षाकृत	-14291
मस	-14292
ज़न	-14293
▁खाल	-14294
▁Cell	-14295
▁IMAP	-14296
▁Vers	-14297
▁cart	-14298
▁saving	-14299
▁नारायण	-14300
▁पहुँची	-14301
▁infection	-14302
▁righteousness	-14303
23	-14304
bre	-14305
म्पा	-14306
▁कुट	-14307
bered	-14308
▁grat	-14309
▁समेक	-14310
▁Prasad	-14311
▁palace	-14312
▁courses	-14313
▁Australia	-14314
▁एजेंसियों	-14315
Ch	-14316
शै	-14317
▁Job	-14318
iques	-14319
▁abst	-14320
▁स्तन	-14321
▁पार्ट	-14322
cession	-14323
▁breasts	-14324
▁suffered	-14325
▁दीक्षांत	-14326
▁gradually	-14327
सद	-14328
ध्व	-14329
▁CS	-14330
They	-14331
aked	-14332
ambo	-14333
काना	-14334
▁vain	-14335
व्यापी	-14336
▁socio	-14337
▁लम्बी	-14338
▁इजाज़त	-14339
▁देखेंगे	-14340
▁परिश्रम	-14341
चाप	-14342
्यूम	-14343
▁offs	-14344
▁draft	-14345
▁claimed	-14346
▁टेलीफोन	-14347
▁स्कूलों	-14348
▁liability	-14349
da	-14350
पय	-14351
ॉक्स	-14352
▁coc	-14353
▁cos	-14354
▁आवि	-14355
▁मतदान	-14356
▁domain	-14357
▁नज़दीक	-14358
▁पंजाबी	-14359
▁मानदंड	-14360
▁devoted	-14361
▁ordered	-14362
▁practical	-14363
▁prominent	-14364
बस	-14365
▁*.	-14366
ounds	-14367
tical	-14368
द्रास	-14369
▁क्रय	-14370
▁पाये	-14371
▁पूछे	-14372
urated	-14373
▁फ्रेम	-14374
▁बहुमत	-14375
▁विफलः	-14376
▁corner	-14377
▁differ	-14378
▁equals	-14379
▁प्लगिन	-14380
▁असामान्य	-14381
Al	-14382
किम	-14383
अपना	-14384
ामिन	-14385
▁Wid	-14386
▁दूँ	-14387
▁रेड	-14388
▁हैस	-14389
chron	-14390
▁Cond	-14391
▁Mode	-14392
▁News	-14393
▁park	-14394
▁हाउस	-14395
▁owned	-14396
▁पुनरा	-14397
▁condem	-14398
▁इंदिरा	-14399
▁उद्यमों	-14400
▁Ramayana	-14401
▁करनेवाली	-14402
▁Parliamentary	-14403
':%	-14404
प्ल	-14405
भास	-14406
▁Ek	-14407
▁रन	-14408
bles	-14409
uted	-14410
▁axis	-14411
▁silk	-14412
▁invent	-14413
▁ड्राइव	-14414
▁शाखाओं	-14415
▁removal	-14416
▁मोहम्मद	-14417
▁हिस्सों	-14418
▁programs	-14419
▁आत्मनिर्भर	-14420
▁प्रणालियों	-14421
Pe	-14422
ईं	-14423
णे	-14424
समझ	-14425
▁हज	-14426
▁Var	-14427
▁Vij	-14428
▁सना	-14429
▁तनाव	-14430
▁needy	-14431
▁Madras	-14432
▁प्रवर्तन	-14433
▁achievements	-14434
ृंग	-14435
▁फट	-14436
▁Cop	-14437
▁rhy	-14438
▁Guid	-14439
▁pard	-14440
▁एमएस	-14441
▁हँसी	-14442
......	-14443
▁panel	-14444
▁widely	-14445
▁पेशेवर	-14446
▁मुकदमा	-14447
▁equival	-14448
▁greatly	-14449
▁stopped	-14450
▁पूर्णतः	-14451
aze	-14452
off	-14453
ताअत	-14454
▁असी	-14455
lines	-14456
हमारी	-14457
▁Raja	-14458
▁Apart	-14459
▁उत्सव	-14460
weather	-14461
▁कार्बन	-14462
▁मरम्मत	-14463
▁Ayurved	-14464
▁विदेशों	-14465
▁elephant	-14466
UG	-14467
ारक	-14468
खुदा	-14469
पीआई	-14470
▁Kam	-14471
स्तीन	-14472
▁गर्भा	-14473
▁सारणी	-14474
ulatory	-14475
श्रेष्ठ	-14476
▁प्राणी	-14477
▁समर्पण	-14478
▁Exalted	-14479
▁पूर्णता	-14480
▁increases	-14481
▁effectively	-14482
96	-14483
oz	-14484
अन	-14485
िफ	-14486
unc	-14487
▁Eff	-14488
▁नाक	-14489
icket	-14490
शिक्ष	-14491
▁resc	-14492
▁नामा	-14493
▁हुये	-14494
orders	-14495
▁पीड़ा	-14496
▁बताने	-14497
▁निवारण	-14498
inations	-14499
▁eternal	-14500
▁resolve	-14501
▁चाहूंगा	-14502
▁संकल्पना	-14503
श्‍	-14504
▁कंध	-14505
सूचना	-14506
▁nurs	-14507
▁accum	-14508
▁liars	-14509
▁quiet	-14510
▁दिखाए	-14511
▁पाओगे	-14512
▁approx	-14513
▁ज़िक्र	-14514
▁वितरित	-14515
▁साझीदार	-14516
▁attended	-14517
▁distress	-14518
▁acceptance	-14519
CD	-14520
▁नाय	-14521
▁रिट	-14522
▁वाइ	-14523
▁हरा	-14524
▁बरकत	-14525
▁advoc	-14526
▁वैष्ण	-14527
▁इन्हीं	-14528
▁awarded	-14529
▁परंपरागत	-14530
▁arrangements	-14531
ATE	-14532
bind	-14533
निया	-14534
▁NPS	-14535
▁ran	-14536
▁खेत	-14537
aching	-14538
▁ऊँचाई	-14539
▁wholly	-14540
▁inhabit	-14541
▁accurate	-14542
▁उत्कृष्टता	-14543
▁significance	-14544
AO	-14545
yn	-14546
▁घन	-14547
down	-14548
▁(23	-14549
▁Action	-14550
▁beside	-14551
▁devices	-14552
▁streams	-14553
▁संतुष्ट	-14554
▁contributed	-14555
urse	-14556
डीएफ	-14557
▁Mir	-14558
▁कुम	-14559
▁1970	-14560
▁bell	-14561
▁boys	-14562
▁पैनल	-14563
▁बनाओ	-14564
ronics	-14565
▁इमारत	-14566
istries	-14567
reement	-14568
▁plaint	-14569
▁printed	-14570
▁assembly	-14571
▁southern	-14572
▁forwarded	-14573
▁partition	-14574
▁बम	-14575
वाणी	-14576
▁कड़	-14577
▁sake	-14578
▁चलना	-14579
▁papers	-14580
▁आंकड़े	-14581
▁गवर्नर	-14582
▁धनराशि	-14583
▁drawing	-14584
)."	-14585
AIL	-14586
▁Mor	-14587
▁dro	-14588
▁हड़	-14589
chief	-14590
▁घटित	-14591
orship	-14592
▁forty	-14593
▁glass	-14594
▁कुबूल	-14595
▁केडीई	-14596
▁तीसरी	-14597
▁disappe	-14598
▁आजीविका	-14599
▁चिकित्सक	-14600
Se	-14601
र्मी	-14602
▁(18	-14603
▁Lah	-14604
▁lev	-14605
▁जगत	-14606
▁बिग	-14607
पोरेट	-14608
▁Task	-14609
▁मंडप	-14610
▁yours	-14611
▁खातों	-14612
▁मानने	-14613
▁humble	-14614
▁शर्तें	-14615
▁pillars	-14616
▁profile	-14617
▁specially	-14618
त्रि	-14619
▁nom	-14620
▁धोखे	-14621
सायनिक	-14622
▁flesh	-14623
▁क्लिप	-14624
▁claims	-14625
▁व्याख्यान	-14626
▁recommendations	-14627
DF	-14628
१९	-14629
णता	-14630
मंच	-14631
▁09	-14632
▁La	-14633
ग्रा	-14634
टकों	-14635
▁viz	-14636
▁गले	-14637
▁सहे	-14638
allel	-14639
▁Mercy	-14640
▁innoc	-14641
▁पूछते	-14642
▁ट्रांस	-14643
▁Details	-14644
▁faculty	-14645
▁अनिवासी	-14646
▁subjected	-14647
▁controlled	-14648
ria	-14649
ूमत	-14650
▁-,	-14651
upon	-14652
▁वैसी	-14653
▁संगत	-14654
▁पत्रों	-14655
▁Perhaps	-14656
▁प्रचालन	-14657
▁संदेशों	-14658
▁अवसंरचना	-14659
TER	-14660
law	-14661
▁EV	-14662
▁डु	-14663
ोल्ड	-14664
▁Ara	-14665
▁eve	-14666
▁बादल	-14667
asures	-14668
▁Audio	-14669
▁delic	-14670
▁usage	-14671
▁sovere	-14672
▁अनुचित	-14673
▁साक्षा	-14674
▁permiss	-14675
▁weapons	-14676
▁मुख्यतः	-14677
जरत	-14678
सम्	-14679
▁myth	-14680
▁गलती	-14681
▁पाठक	-14682
▁समाम	-14683
▁Lanka	-14684
▁Russia	-14685
▁shrine	-14686
▁मद्रास	-14687
▁ignorance	-14688
▁investors	-14689
▁receiving	-14690
▁कार्यकारी	-14691
र्भ	-14692
▁47	-14693
▁1986	-14694
▁ज़बान	-14695
ानुभूति	-14696
▁मुशरिक	-14697
▁determine	-14698
▁terrorist	-14699
जक	-14700
ंकी	-14701
उसका	-14702
खाना	-14703
▁Tir	-14704
▁fly	-14705
▁bact	-14706
▁कराई	-14707
▁नौका	-14708
▁मोहन	-14709
▁निक्ष	-14710
▁recovery	-14711
▁sentence	-14712
▁अस्वीकार	-14713
▁intention	-14714
▁CP	-14715
▁Far	-14716
हाबाद	-14717
चन्द्र	-14718
▁incom	-14719
▁कराता	-14720
▁player	-14721
▁resort	-14722
DA	-14723
HER	-14724
खार	-14725
▁नम	-14726
▁ओवर	-14727
▁MSME	-14728
▁deaf	-14729
▁scene	-14730
▁phenomen	-14731
▁उत्पादकता	-14732
▁components	-14733
▁accompanied	-14734
▁धान	-14735
▁Prop	-14736
▁अतएव	-14737
▁illeg	-14738
▁kings	-14739
▁proxy	-14740
▁covers	-14741
▁minute	-14742
▁package	-14743
▁companions	-14744
▁Universities	-14745
कोर	-14746
क़ात	-14747
▁उदय	-14748
tched	-14749
बार्ड	-14750
▁ungr	-14751
▁strange	-14752
▁Download	-14753
EF	-14754
हान	-14755
umph	-14756
ंगें	-14757
ण्डल	-14758
विंद	-14759
▁Wik	-14760
▁ओपन	-14761
▁Bhut	-14762
▁सृजित	-14763
त्रियों	-14764
▁कवियों	-14765
▁संयोजन	-14766
▁Location	-14767
9)	-14768
▁1/	-14769
long	-14770
▁अवल	-14771
pping	-14772
lihood	-14773
ailable	-14774
▁Person	-14775
▁danger	-14776
▁unseen	-14777
▁प्रदत्त	-14778
▁ceremony	-14779
▁educated	-14780
▁आयुर्वेद	-14781
▁monitoring	-14782
▁व्युत्पन्न	-14783
थन	-14784
ताप	-14785
ऊँगा	-14786
पक्व	-14787
▁mun	-14788
▁घुस	-14789
▁धूम	-14790
peror	-14791
र्कों	-14792
▁vide	-14793
▁अड्ड	-14794
▁इस्प	-14795
▁वृत्त	-14796
gorithm	-14797
▁bridge	-14798
▁Chaitanya	-14799
▁producing	-14800
▁admonition	-14801
ँट	-14802
ंर	-14803
फ़त	-14804
विदा	-14805
▁mak	-14806
▁fasc	-14807
▁बगैर	-14808
▁वाणी	-14809
▁Binoy	-14810
▁श्रेण	-14811
▁deities	-14812
▁structures	-14813
सेल	-14814
wing	-14815
कक्ष	-14816
ताकि	-14817
▁nav	-14818
ATORS	-14819
▁Ever	-14820
▁जरुर	-14821
▁गाड़ी	-14822
▁stress	-14823
▁दिखाना	-14824
▁इंजीनियरी	-14825
वो	-14826
ग्स	-14827
ेयर	-14828
▁ego	-14829
▁ताज	-14830
▁acce	-14831
▁Major	-14832
▁cloth	-14833
▁कालेज	-14834
▁खोजें	-14835
▁Meeting	-14836
▁browser	-14837
▁उपेक्षा	-14838
App	-14839
्रु	-14840
▁ढाँ	-14841
arest	-14842
▁1995	-14843
▁worst	-14844
▁पशुओं	-14845
▁होस्ट	-14846
▁पहुँचने	-14847
▁मित्रता	-14848
▁समकालीन	-14849
▁familiar	-14850
▁विकासशील	-14851
▁strategic	-14852
▁उपलब्धियों	-14853
pad	-14854
जाने	-14855
▁नाश	-14856
▁lege	-14857
▁urge	-14858
▁मंगल	-14859
▁आँखें	-14860
attered	-14861
▁cotton	-14862
▁अज्ञान	-14863
▁रिश्ते	-14864
▁aggress	-14865
CP	-14866
▁फूँ	-14867
▁clar	-14868
▁नकदी	-14869
▁Short	-14870
▁TRANSL	-14871
▁prefer	-14872
▁कर्मों	-14873
▁ज़रूरत	-14874
▁indirect	-14875
ुरु	-14876
ड़कर	-14877
▁ऊतक	-14878
▁क्यू	-14879
▁माननीय	-14880
▁enforce	-14881
API	-14882
ंचल	-14883
रेत	-14884
▁फाइ	-14885
▁node	-14886
▁चौथा	-14887
▁बढ़ो	-14888
▁bears	-14889
▁निरूप	-14890
▁संजाल	-14891
▁Rights	-14892
▁इस्पात	-14893
▁रखरखाव	-14894
▁creates	-14895
▁सौंदर्य	-14896
▁Certainly	-14897
▁Executive	-14898
▁substantial	-14899
ham	-14900
ठीक	-14901
▁03	-14902
oram	-14903
▁pix	-14904
▁लीग	-14905
▁Orig	-14906
▁बाढ़	-14907
▁खतरनाक	-14908
▁Install	-14909
ictionary	-14910
▁infinite	-14911
▁reckoning	-14912
्चर	-14913
्पण	-14914
▁वें	-14915
▁वैय	-14916
▁सीन	-14917
azing	-14918
▁(195	-14919
▁कंपन	-14920
▁जुटा	-14921
▁हमपर	-14922
्टवेयर	-14923
▁seeks	-14924
▁League	-14925
▁निपटान	-14926
▁समामेल	-14927
▁sharing	-14928
▁परिपक्व	-14929
▁प्रॉक्सी	-14930
▁classical	-14931
▁encouraged	-14932
fl	-14933
Pro	-14934
▁माध	-14935
▁exem	-14936
▁myst	-14937
▁नौकर	-14938
▁मणिप	-14939
▁स्वै	-14940
▁Hence	-14941
▁fluid	-14942
▁wrath	-14943
▁निमित	-14944
भूतियों	-14945
▁permit	-14946
▁retrie	-14947
▁अन्याय	-14948
▁prophet	-14949
▁realise	-14950
▁मुकाबले	-14951
▁dwelling	-14952
▁testimony	-14953
ईमान	-14954
ूल्य	-14955
▁cup	-14956
▁मग़	-14957
▁वजन	-14958
▁Burn	-14959
▁salt	-14960
▁उत्‍	-14961
▁गयीं	-14962
▁घाटा	-14963
▁मुहा	-14964
▁औज़ार	-14965
▁कृत्य	-14966
▁लम्बे	-14967
▁सेंटर	-14968
▁diplom	-14969
▁इन्द्र	-14970
▁जिन्ना	-14971
▁eminent	-14972
▁musical	-14973
▁publish	-14974
▁internet	-14975
▁discipline	-14976
gage	-14977
leum	-14978
स्सी	-14979
▁कोण	-14980
▁बडा	-14981
There	-14982
iable	-14983
न्नों	-14984
▁chair	-14985
▁ended	-14986
▁Sector	-14987
▁हैसियत	-14988
▁imagine	-14989
▁पहाड़ों	-14990
▁सितम्बर	-14991
▁valuable	-14992
राष्ट्रपति	-14993
ड्	-14994
गृह	-14995
ताज	-14996
वेल	-14997
हीत	-14998
खाने	-14999
▁मत्	-15000
liest	-15001
▁HTTP	-15002
▁tear	-15003
akrish	-15004
▁परवाह	-15005
▁रचनाओं	-15006
▁lessons	-15007
▁prevail	-15008
▁महासागर	-15009
▁ignorant	-15010
▁परिस्थिति	-15011
▁innovative	-15012
▁TRANSLATORS	-15013
▁फूट	-15014
▁bull	-15015
▁शादी	-15016
ashion	-15017
फ़ारिश	-15018
▁chrom	-15019
▁टैगोर	-15020
▁डोमेन	-15021
▁सुनकर	-15022
▁सुनाई	-15023
▁पब्लिक	-15024
▁tremend	-15025
▁normally	-15026
▁subsequent	-15027
पीठ	-15028
लाप	-15029
When	-15030
▁Shiv	-15031
▁pron	-15032
▁oaths	-15033
▁quarter	-15034
▁testing	-15035
▁मध्यस्थ	-15036
▁वस्तुतः	-15037
operation	-15038
▁arranged	-15039
▁सामान्यतया	-15040
▁distinction	-15041
name	-15042
क्षे	-15043
▁Sin	-15044
▁इबर	-15045
▁नरम	-15046
▁नूर	-15047
▁शब्	-15048
श्चित	-15049
▁दलों	-15050
▁Koran	-15051
▁रूपये	-15052
▁lesson	-15053
▁Forward	-15054
▁Medical	-15055
▁northern	-15056
▁शक्तियां	-15057
▁स्ट्रिंग	-15058
▁अंग्रेज़ी	-15059
गान	-15060
शास	-15061
▁अच	-15062
तिपय	-15063
श्ती	-15064
▁Cle	-15065
▁NAB	-15066
▁गोरा	-15067
▁सुनी	-15068
ानुसार	-15069
▁Center	-15070
▁दार्शनिक	-15071
▁resulting	-15072
बाप	-15073
▁देह	-15074
acing	-15075
▁सोचते	-15076
▁debate	-15077
▁इलाकों	-15078
▁त्वरित	-15079
▁व्यर्थ	-15080
▁biggest	-15081
▁despite	-15082
▁constitu	-15083
▁विज्ञापन	-15084
▁Selection	-15085
▁रखनेवालों	-15086
▁authorised	-15087
▁presentation	-15088
EX	-15089
asy	-15090
ड़ो	-15091
ding	-15092
प्रण	-15093
▁SSL	-15094
ounce	-15095
▁दांत	-15096
▁Somet	-15097
▁अनन्त	-15098
▁कोयला	-15099
▁client	-15100
▁प्रातः	-15101
▁mothers	-15102
▁एक्सचेंज	-15103
▁प्रतिलिपि	-15104
▁respondent	-15105
▁प्रशिक्षित	-15106
▁Fe	-15107
itra	-15108
आईसी	-15109
▁पते	-15110
alore	-15111
▁narr	-15112
▁vary	-15113
▁माउस	-15114
▁Value	-15115
▁इताअत	-15116
▁बढ़ता	-15117
expected	-15118
▁प्रिंटर	-15119
▁alternative	-15120
▁combination	-15121
घन	-15122
रन	-15123
अगर	-15124
▁चट	-15125
▁नल	-15126
प्रथम	-15127
▁cycle	-15128
▁faced	-15129
▁slaves	-15130
artments	-15131
▁रूपरेखा	-15132
▁संवेदनशील	-15133
▁प्रतिस्पर्धा	-15134
▁representatives	-15135
तिज	-15136
ष्म	-15137
▁नक्	-15138
▁बंबई	-15139
▁लगने	-15140
idences	-15141
▁emerging	-15142
▁दिशानिर्	-15143
मोहन	-15144
▁Ltd	-15145
▁bomb	-15146
▁फौरन	-15147
▁मन्द	-15148
ipping	-15149
worthy	-15150
त्यक्ष	-15151
▁solve	-15152
▁संगणक	-15153
▁dreams	-15154
▁constantly	-15155
▁collaboration	-15156
▁कव	-15157
लिये	-15158
िकरण	-15159
▁245	-15160
▁Exp	-15161
▁GNU	-15162
amber	-15163
▁Prot	-15164
त्मकता	-15165
▁पढ़ाई	-15166
▁हरिया	-15167
▁नवाचार	-15168
▁सिर्फ़	-15169
▁submission	-15170
3)	-15171
दाह	-15172
▁टक	-15173
गोया	-15174
▁आदत	-15175
▁बिट	-15176
▁Said	-15177
▁bath	-15178
▁ऊंची	-15179
▁सकने	-15180
▁Nagar	-15181
▁कुदरत	-15182
▁विधिक	-15183
Laughter	-15184
▁exactly	-15185
▁falling	-15186
▁killing	-15187
▁knoweth	-15188
▁director	-15189
▁carefully	-15190
-5	-15191
नत	-15192
रह	-15193
▁Da	-15194
प्रा	-15195
▁वेश	-15196
angle	-15197
being	-15198
ज्ज़त	-15199
▁Object	-15200
▁listed	-15201
▁संदत्त	-15202
▁कविताओं	-15203
▁रिज़र्व	-15204
▁विनियमन	-15205
▁entrusted	-15206
▁Legislature	-15207
▁legislation	-15208
▁अफगानिस्तान	-15209
नेस	-15210
ूलन	-15211
▁42	-15212
ष्‍ट	-15213
▁Tal	-15214
▁दीं	-15215
▁मील	-15216
▁कथित	-15217
▁हिला	-15218
▁cards	-15219
▁patri	-15220
▁उत्पा	-15221
▁NATION	-15222
▁finding	-15223
▁कार्मिक	-15224
▁प्रोटीन	-15225
▁Officers	-15226
▁painting	-15227
▁राजमार्ग	-15228
▁qualities	-15229
eper	-15230
कहीं	-15231
▁Ary	-15232
▁Taj	-15233
स्टिक	-15234
▁Vidy	-15235
▁ring	-15236
▁snow	-15237
▁बेकार	-15238
▁संकलन	-15239
▁compuls	-15240
▁संवेदना	-15241
▁pictures	-15242
Go	-15243
भुत	-15244
▁Kir	-15245
▁ह्र	-15246
▁beat	-15247
▁tube	-15248
▁बालक	-15249
दृष्टि	-15250
स्तीनी	-15251
▁midst	-15252
pection	-15253
▁अंतरित	-15254
▁missing	-15255
▁दीवारों	-15256
▁historic	-15257
▁terminal	-15258
▁competent	-15259
▁cultivation	-15260
स्से	-15261
▁wed	-15262
▁Hide	-15263
▁airc	-15264
▁unaw	-15265
▁गूगल	-15266
▁नुक़	-15267
▁gradu	-15268
▁loves	-15269
▁sales	-15270
▁मेहनत	-15271
▁शासित	-15272
▁humili	-15273
▁reader	-15274
▁आकर्षक	-15275
▁एशियाई	-15276
▁Manipur	-15277
▁ungrateful	-15278
TS	-15279
859	-15280
wal	-15281
▁51	-15282
▁ड़	-15283
itud	-15284
▁IIT	-15285
▁Rah	-15286
▁चखा	-15287
▁मंग	-15288
न्हें	-15289
▁diam	-15290
▁बांट	-15291
क्षरता	-15292
▁Again	-15293
▁flour	-15294
▁छोड़े	-15295
▁Working	-15296
▁closely	-15297
Os	-15298
ato	-15299
ौलत	-15300
▁Br	-15301
▁अय	-15302
▁फू	-15303
rers	-15304
तत्व	-15305
▁600	-15306
▁Sen	-15307
▁नमक	-15308
▁1987	-15309
encing	-15310
roleum	-15311
▁अपवाद	-15312
▁France	-15313
▁Plugin	-15314
▁forced	-15315
▁injury	-15316
entation	-15317
प्रदायिक	-15318
▁नाबार्ड	-15319
▁imprison	-15320
▁परिकल्पना	-15321
ugu	-15322
husi	-15323
म्मा	-15324
ग़ैरह	-15325
▁किला	-15326
▁दौरा	-15327
▁decade	-15328
▁convent	-15329
▁discrim	-15330
▁mandapa	-15331
▁vehicle	-15332
▁arrogant	-15333
▁disgrace	-15334
▁reaching	-15335
▁weakness	-15336
▁transformation	-15337
KS	-15338
uv	-15339
▁२०	-15340
omon	-15341
▁गेह	-15342
alaya	-15343
▁Sund	-15344
▁merg	-15345
▁advis	-15346
▁अवकाश	-15347
▁फूलों	-15348
▁poetic	-15349
▁खुल्लम	-15350
▁दिखाते	-15351
▁सर्वथा	-15352
▁Template	-15353
▁commands	-15354
▁पहुंचाने	-15355
▁sensitive	-15356
▁preparation	-15357
▁congratulate	-15358
ायल	-15359
स्कर	-15360
▁anx	-15361
▁छोड	-15362
▁बेस	-15363
▁रूह	-15364
▁hence	-15365
▁shell	-15366
▁ग्रीन	-15367
▁सौंपा	-15368
lasting	-15369
▁engage	-15370
▁goddess	-15371
▁Japanese	-15372
▁कहानियों	-15373
▁represented	-15374
oso	-15375
कुफ्	-15376
▁मुआ	-15377
▁"{0}	-15378
▁नजात	-15379
▁सवाब	-15380
▁worse	-15381
▁carbon	-15382
▁sports	-15383
▁क़्यों	-15384
▁helping	-15385
▁reserve	-15386
▁sinners	-15387
▁मौजिज़े	-15388
▁सम्बद्ध	-15389
▁Maharaja	-15390
▁authentication	-15391
पटा	-15392
र्थी	-15393
▁pig	-15394
लेमान	-15395
▁1957	-15396
▁Does	-15397
▁आजाद	-15398
▁grief	-15399
▁motor	-15400
▁अखबार	-15401
▁गर्दन	-15402
ष्टाचार	-15403
▁eating	-15404
▁insist	-15405
▁मेमोरी	-15406
▁शान्ति	-15407
▁शुरूआत	-15408
▁traffic	-15409
▁triumph	-15410
jud	-15411
डों	-15412
▁Ach	-15413
endra	-15414
▁जंगली	-15415
▁नाट्य	-15416
▁मराठी	-15417
▁females	-15418
▁raising	-15419
▁ज्यादातर	-15420
▁arguments	-15421
xts	-15422
गंध	-15423
▁je	-15424
▁बश	-15425
भांश	-15426
▁DAY	-15427
▁आवृ	-15428
▁Font	-15429
▁प्या	-15430
▁सफाई	-15431
▁Order	-15432
▁dealt	-15433
▁रोज़े	-15434
▁Courts	-15435
▁सृष्टि	-15436
▁opposite	-15437
▁रासायनिक	-15438
▁technique	-15439
ूरो	-15440
▁Abd	-15441
▁rom	-15442
▁धूप	-15443
▁मेज	-15444
▁संब	-15445
India	-15446
▁divor	-15447
▁wages	-15448
▁प्रभु	-15449
▁सहभाग	-15450
▁finger	-15451
▁enthusi	-15452
▁वर्गीकरण	-15453
OU	-15454
olt	-15455
क्के	-15456
ालों	-15457
▁CRA	-15458
दर्शक	-15459
▁कबीर	-15460
▁यूआर	-15461
▁alike	-15462
▁anger	-15463
▁roots	-15464
▁क्रोध	-15465
▁ending	-15466
▁ठहराते	-15467
▁रंगमंच	-15468
▁declare	-15469
▁ordained	-15470
▁technological	-15471
फु	-15472
ogen	-15473
ट्टा	-15474
▁एन्	-15475
िश्ता	-15476
▁1988	-15477
▁Resp	-15478
▁किमी	-15479
▁मरने	-15480
▁वादी	-15481
orters	-15482
▁आमदनी	-15483
▁हज़ार	-15484
▁signal	-15485
▁regularly	-15486
▁बांग्लादेश	-15487
▁entrepreneur	-15488
HO	-15489
रीद	-15490
▁रै	-15491
▁बोध	-15492
▁diet	-15493
▁inev	-15494
▁rose	-15495
▁डालो	-15496
▁वरन्	-15497
▁hosts	-15498
▁हममें	-15499
▁strict	-15500
▁Interest	-15501
▁concerns	-15502
▁offspring	-15503
▁proposals	-15504
▁requirement	-15505
▁इंजीनियरिंग	-15506
tha	-15507
बेल	-15508
▁56	-15509
▁afo	-15510
▁करू	-15511
▁हरी	-15512
▁मोती	-15513
▁कतिपय	-15514
▁किनारा	-15515
▁बढ़ाना	-15516
▁Britain	-15517
▁largely	-15518
▁studied	-15519
▁generated	-15520
▁Properties	-15521
▁livelihood	-15522
▁सर्वश्रेष्ठ	-15523
lor	-15524
achi	-15525
गांठ	-15526
▁wat	-15527
▁अपर	-15528
▁विट	-15529
▁अजीब	-15530
▁ऊंचे	-15531
▁seats	-15532
▁निबंध	-15533
▁पकड़े	-15534
▁advert	-15535
▁invoke	-15536
▁flowing	-15537
▁निमित्त	-15538
▁ब्रह्मा	-15539
▁inserted	-15540
▁स्त्रियाँ	-15541
▁indigenous	-15542
▁consequences	-15543
iya	-15544
▁उज	-15545
▁पठ	-15546
araj	-15547
▁kid	-15548
▁शपथ	-15549
अच्छे	-15550
▁Luck	-15551
▁रहीं	-15552
▁deriv	-15553
▁slave	-15554
▁मानों	-15555
▁Railway	-15556
▁pleases	-15557
▁पार्श्व	-15558
▁subscribe	-15559
▁Industries	-15560
▁experiences	-15561
%)	-15562
mal	-15563
खिक	-15564
वीर	-15565
ashi	-15566
▁kne	-15567
▁आधे	-15568
▁मसल	-15569
▁शेर	-15570
▁keen	-15571
▁keys	-15572
▁mine	-15573
▁राधा	-15574
▁सबका	-15575
▁Vaishn	-15576
▁reaction	-15577
▁instruction	-15578
▁constitutional	-15579
मैन	-15580
हमने	-15581
▁Nic	-15582
▁ben	-15583
▁मैच	-15584
icode	-15585
▁Sita	-15586
▁scar	-15587
essions	-15588
▁निपटने	-15589
▁tourist	-15590
▁execution	-15591
िट्	-15592
adur	-15593
rase	-15594
▁125	-15595
▁कंट	-15596
र्दों	-15597
▁सार्थ	-15598
▁NABARD	-15599
▁स्पर्श	-15600
iculture	-15601
▁fearing	-15602
▁imposed	-15603
▁passion	-15604
▁finished	-15605
▁सहानुभूति	-15606
▁१२	-15607
▁देन	-15608
igned	-15609
निहित	-15610
▁इनको	-15611
▁नर्स	-15612
▁नायक	-15613
▁admin	-15614
▁मनाया	-15615
त्तियों	-15616
▁closer	-15617
▁uniform	-15618
▁शास्त्रीय	-15619
-9	-15620
ढे	-15621
dev	-15622
ema	-15623
▁85	-15624
cles	-15625
rors	-15626
usuf	-15627
हासन	-15628
▁माउ	-15629
aming	-15630
power	-15631
रेकीन	-15632
▁sixt	-15633
▁घेरे	-15634
▁दस्त	-15635
▁फलों	-15636
▁विधा	-15637
▁royal	-15638
▁पूछता	-15639
वैधानिक	-15640
▁entity	-15641
▁prince	-15642
▁worthy	-15643
▁निवेदन	-15644
▁bearing	-15645
▁एकत्रित	-15646
▁प्रतिरोध	-15647
▁conferred	-15648
कोष	-15649
गित	-15650
नाई	-15651
▁od	-15652
atri	-15653
cure	-15654
iary	-15655
लंका	-15656
लेखा	-15657
▁Fam	-15658
▁इंस	-15659
▁कोर	-15660
▁वसा	-15661
▁सोम	-15662
▁alle	-15663
▁bats	-15664
▁बचपन	-15665
▁मेगा	-15666
▁अन्वेष	-15667
▁yesterday	-15668
▁रजिस्ट्री	-15669
▁commencement	-15670
शिप	-15671
▁39	-15672
ogue	-15673
वर्ग	-15674
ैतिज	-15675
प्राय	-15676
▁Exam	-15677
▁नोडल	-15678
▁chose	-15679
▁depri	-15680
▁निराश	-15681
▁भत्ता	-15682
▁रद्दी	-15683
▁मिटाना	-15684
▁careful	-15685
▁contrary	-15686
▁consisting	-15687
▁क्रांतिकारी	-15688
▁civilization	-15689
▁९	-15690
नाइ	-15691
▁05	-15692
टिंग	-15693
▁250	-15694
▁III	-15695
▁किल	-15696
▁पीछ	-15697
▁Supp	-15698
▁धोखा	-15699
▁बीबी	-15700
▁route	-15701
▁wings	-15702
▁माहौल	-15703
▁लौटने	-15704
▁अन्जाम	-15705
▁Majesty	-15706
criptions	-15707
▁निवेशकों	-15708
▁बल्लेबाज	-15709
▁Protection	-15710
za	-15711
▁SM	-15712
ille	-15713
pent	-15714
wood	-15715
ifted	-15716
▁बेटी	-15717
▁मौज़	-15718
▁सौदा	-15719
elfare	-15720
▁deals	-15721
▁learnt	-15722
▁complic	-15723
▁गणतंत्र	-15724
▁announce	-15725
▁स्वाधीनता	-15726
26	-15727
47	-15728
ba	-15729
akk	-15730
▁नं	-15731
ित्य	-15732
▁तरल	-15733
▁Auto	-15734
▁त्रिप	-15735
irement	-15736
▁tribes	-15737
▁गरीबों	-15738
ordinate	-15739
▁ज्यादती	-15740
▁oriented	-15741
हल	-15742
rut	-15743
▁hi	-15744
▁घृ	-15745
▁चक	-15746
ज्जा	-15747
▁नोक	-15748
▁महो	-15749
▁PRAN	-15750
▁Viet	-15751
▁आलेख	-15752
▁पाइप	-15753
▁शाही	-15754
▁बरबाद	-15755
connect	-15756
▁manage	-15757
▁चित्रण	-15758
▁टुकड़ा	-15759
▁Resource	-15760
▁Sometimes	-15761
▁representation	-15762
हृ	-15763
वानि	-15764
▁Yoj	-15765
▁भूट	-15766
▁1930	-15767
स्मृति	-15768
▁shame	-15769
▁अभिने	-15770
▁visual	-15771
▁खरीदने	-15772
▁निर्गम	-15773
▁बढ़ाया	-15774
▁attacks	-15775
▁farming	-15776
▁managed	-15777
▁फरिश्ते	-15778
▁सर्वज्ञ	-15779
▁प्रतिज्ञा	-15780
▁Additional	-15781
▁equivalent	-15782
▁परियोजनाएं	-15783
तिक्र	-15784
▁synt	-15785
iously	-15786
▁react	-15787
▁wheat	-15788
▁defeat	-15789
▁wished	-15790
secution	-15791
▁विस्फोट	-15792
▁सिफ़ारिश	-15793
▁tremendous	-15794
जय	-15795
oul	-15796
दाम	-15797
▁Hor	-15798
दाबाद	-15799
[...]
